<pad>	0
<s>	0
</s>	0
<unk>	0
	0
	0
	0
	0
	0
<0x00>	0
<0x01>	0
<0x02>	0
<0x03>	0
<0x04>	0
<0x05>	0
<0x06>	0
<0x07>	0
<0x08>	0
<0x09>	0
<0x0A>	0
<0x0B>	0
<0x0C>	0
<0x0D>	0
<0x0E>	0
<0x0F>	0
<0x10>	0
<0x11>	0
<0x12>	0
<0x13>	0
<0x14>	0
<0x15>	0
<0x16>	0
<0x17>	0
<0x18>	0
<0x19>	0
<0x1A>	0
<0x1B>	0
<0x1C>	0
<0x1D>	0
<0x1E>	0
<0x1F>	0
<0x20>	0
<0x21>	0
<0x22>	0
<0x23>	0
<0x24>	0
<0x25>	0
<0x26>	0
<0x27>	0
<0x28>	0
<0x29>	0
<0x2A>	0
<0x2B>	0
<0x2C>	0
<0x2D>	0
<0x2E>	0
<0x2F>	0
<0x30>	0
<0x31>	0
<0x32>	0
<0x33>	0
<0x34>	0
<0x35>	0
<0x36>	0
<0x37>	0
<0x38>	0
<0x39>	0
<0x3A>	0
<0x3B>	0
<0x3C>	0
<0x3D>	0
<0x3E>	0
<0x3F>	0
<0x40>	0
<0x41>	0
<0x42>	0
<0x43>	0
<0x44>	0
<0x45>	0
<0x46>	0
<0x47>	0
<0x48>	0
<0x49>	0
<0x4A>	0
<0x4B>	0
<0x4C>	0
<0x4D>	0
<0x4E>	0
<0x4F>	0
<0x50>	0
<0x51>	0
<0x52>	0
<0x53>	0
<0x54>	0
<0x55>	0
<0x56>	0
<0x57>	0
<0x58>	0
<0x59>	0
<0x5A>	0
<0x5B>	0
<0x5C>	0
<0x5D>	0
<0x5E>	0
<0x5F>	0
<0x60>	0
<0x61>	0
<0x62>	0
<0x63>	0
<0x64>	0
<0x65>	0
<0x66>	0
<0x67>	0
<0x68>	0
<0x69>	0
<0x6A>	0
<0x6B>	0
<0x6C>	0
<0x6D>	0
<0x6E>	0
<0x6F>	0
<0x70>	0
<0x71>	0
<0x72>	0
<0x73>	0
<0x74>	0
<0x75>	0
<0x76>	0
<0x77>	0
<0x78>	0
<0x79>	0
<0x7A>	0
<0x7B>	0
<0x7C>	0
<0x7D>	0
<0x7E>	0
<0x7F>	0
<0x80>	0
<0x81>	0
<0x82>	0
<0x83>	0
<0x84>	0
<0x85>	0
<0x86>	0
<0x87>	0
<0x88>	0
<0x89>	0
<0x8A>	0
<0x8B>	0
<0x8C>	0
<0x8D>	0
<0x8E>	0
<0x8F>	0
<0x90>	0
<0x91>	0
<0x92>	0
<0x93>	0
<0x94>	0
<0x95>	0
<0x96>	0
<0x97>	0
<0x98>	0
<0x99>	0
<0x9A>	0
<0x9B>	0
<0x9C>	0
<0x9D>	0
<0x9E>	0
<0x9F>	0
<0xA0>	0
<0xA1>	0
<0xA2>	0
<0xA3>	0
<0xA4>	0
<0xA5>	0
<0xA6>	0
<0xA7>	0
<0xA8>	0
<0xA9>	0
<0xAA>	0
<0xAB>	0
<0xAC>	0
<0xAD>	0
<0xAE>	0
<0xAF>	0
<0xB0>	0
<0xB1>	0
<0xB2>	0
<0xB3>	0
<0xB4>	0
<0xB5>	0
<0xB6>	0
<0xB7>	0
<0xB8>	0
<0xB9>	0
<0xBA>	0
<0xBB>	0
<0xBC>	0
<0xBD>	0
<0xBE>	0
<0xBF>	0
<0xC0>	0
<0xC1>	0
<0xC2>	0
<0xC3>	0
<0xC4>	0
<0xC5>	0
<0xC6>	0
<0xC7>	0
<0xC8>	0
<0xC9>	0
<0xCA>	0
<0xCB>	0
<0xCC>	0
<0xCD>	0
<0xCE>	0
<0xCF>	0
<0xD0>	0
<0xD1>	0
<0xD2>	0
<0xD3>	0
<0xD4>	0
<0xD5>	0
<0xD6>	0
<0xD7>	0
<0xD8>	0
<0xD9>	0
<0xDA>	0
<0xDB>	0
<0xDC>	0
<0xDD>	0
<0xDE>	0
<0xDF>	0
<0xE0>	0
<0xE1>	0
<0xE2>	0
<0xE3>	0
<0xE4>	0
<0xE5>	0
<0xE6>	0
<0xE7>	0
<0xE8>	0
<0xE9>	0
<0xEA>	0
<0xEB>	0
<0xEC>	0
<0xED>	0
<0xEE>	0
<0xEF>	0
<0xF0>	0
<0xF1>	0
<0xF2>	0
<0xF3>	0
<0xF4>	0
<0xF5>	0
<0xF6>	0
<0xF7>	0
<0xF8>	0
<0xF9>	0
<0xFA>	0
<0xFB>	0
<0xFC>	0
<0xFD>	0
<0xFE>	0
<0xFF>	0
▁t	-0
▁a	-1
in	-2
he	-3
re	-4
on	-5
er	-6
▁the	-7
▁s	-8
▁w	-9
or	-10
at	-11
ou	-12
nd	-13
it	-14
▁c	-15
es	-16
is	-17
▁f	-18
en	-19
ing	-20
▁b	-21
▁p	-22
▁o	-23
an	-24
al	-25
ed	-26
▁to	-27
ar	-28
▁m	-29
▁and	-30
▁in	-31
▁of	-32
le	-33
▁d	-34
ic	-35
as	-36
om	-37
▁h	-38
ion	-39
▁th	-40
il	-41
st	-42
ro	-43
ent	-44
▁l	-45
ve	-46
▁y	-47
▁e	-48
▁re	-49
▁n	-50
ac	-51
▁g	-52
et	-53
▁you	-54
ly	-55
the	-56
id	-57
▁for	-58
▁is	-59
ay	-60
▁on	-61
▁be	-62
am	-63
ow	-64
se	-65
ot	-66
ad	-67
ol	-68
ct	-69
ig	-70
im	-71
ch	-72
▁u	-73
ver	-74
ith	-75
el	-76
▁st	-77
ut	-78
ation	-79
▁with	-80
ir	-81
▁that	-82
th	-83
ur	-84
ce	-85
▁it	-86
▁he	-87
ill	-88
if	-89
ter	-90
▁al	-91
▁an	-92
ul	-93
our	-94
ke	-95
ers	-96
ag	-97
▁pro	-98
▁as	-99
▁are	-100
▁wh	-101
▁we	-102
oo	-103
out	-104
▁ha	-105
un	-106
pp	-107
us	-108
ab	-109
ate	-110
ess	-111
▁con	-112
▁com	-113
▁1	-114
▁at	-115
▁or	-116
ra	-117
▁2	-118
em	-119
est	-120
ore	-121
ri	-122
rom	-123
igh	-124
▁-	-125
op	-126
▁ne	-127
▁your	-128
▁se	-129
qu	-130
and	-131
ist	-132
ld	-133
res	-134
ment	-135
▁ex	-136
▁(	-137
ity	-138
pe	-139
ant	-140
▁v	-141
art	-142
ive	-143
ort	-144
all	-145
ust	-146
▁r	-147
um	-148
▁have	-149
▁was	-150
▁from	-151
▁this	-152
▁de	-153
oc	-154
▁sh	-155
▁can	-156
ain	-157
ies	-158
▁su	-159
os	-160
▁will	-161
▁ch	-162
▁by	-163
ight	-164
nt	-165
ard	-166
ome	-167
te	-168
▁not	-169
ud	-170
red	-171
▁le	-172
we	-173
▁wor	-174
00	-175
ge	-176
ost	-177
▁pl	-178
ie	-179
iv	-180
ide	-181
king	-182
ther	-183
for	-184
▁ab	-185
per	-186
ast	-187
ial	-188
rou	-189
pl	-190
fe	-191
gh	-192
▁all	-193
od	-194
ine	-195
ack	-196
ould	-197
▁j	-198
ell	-199
ice	-200
▁has	-201
act	-202
ure	-203
ind	-204
ear	-205
cl	-206
ne	-207
one	-208
so	-209
▁do	-210
are	-211
▁k	-212
▁us	-213
▁ad	-214
age	-215
pt	-216
ake	-217
ip	-218
ions	-219
ry	-220
▁out	-221
ally	-222
ks	-223
▁but	-224
▁me	-225
▁whe	-226
▁up	-227
com	-228
▁our	-229
able	-230
to	-231
▁comp	-232
▁en	-233
▁more	-234
ail	-235
▁“	-236
og	-237
very	-238
ite	-239
ime	-240
ich	-241
▁their	-242
▁cl	-243
▁so	-244
ood	-245
ber	-246
her	-247
ated	-248
ong	-249
▁20	-250
▁my	-251
ap	-252
▁sa	-253
iz	-254
ame	-255
du	-256
▁ac	-257
ans	-258
▁they	-259
▁te	-260
▁one	-261
ous	-262
ak	-263
ass	-264
ike	-265
▁about	-266
ace	-267
ase	-268
con	-269
ru	-270
▁cont	-271
ia	-272
▁im	-273
ign	-274
ire	-275
ance	-276
▁off	-277
▁fe	-278
ach	-279
▁man	-280
▁who	-281
ree	-282
bl	-283
reat	-284
now	-285
▁new	-286
▁go	-287
▁app	-288
▁3	-289
▁year	-290
ib	-291
ays	-292
▁"	-293
av	-294
ff	-295
au	-296
▁res	-297
..	-298
ick	-299
port	-300
form	-301
▁his	-302
erv	-303
▁qu	-304
ations	-305
ult	-306
ary	-307
ction	-308
this	-309
▁per	-310
vel	-311
▁also	-312
ook	-313
ile	-314
▁which	-315
▁time	-316
▁get	-317
ents	-318
day	-319
ep	-320
ount	-321
ove	-322
ue	-323
▁some	-324
▁like	-325
▁201	-326
ven	-327
▁tr	-328
▁other	-329
▁any	-330
cess	-331
▁sp	-332
ark	-333
ical	-334
ence	-335
che	-336
▁part	-337
▁been	-338
ings	-339
ph	-340
▁dis	-341
pro	-342
ition	-343
▁over	-344
▁un	-345
ress	-346
be	-347
ors	-348
low	-349
wh	-350
▁them	-351
sh	-352
ild	-353
int	-354
▁ar	-355
▁pe	-356
▁ro	-357
▁ag	-358
▁her	-359
ov	-360
ord	-361
▁when	-362
ound	-363
ang	-364
su	-365
ple	-366
ish	-367
▁need	-368
own	-369
irst	-370
ough	-371
ose	-372
▁pre	-373
▁spe	-374
ll	-375
▁just	-376
▁said	-377
ck	-378
ren	-379
ens	-380
▁pr	-381
de	-382
ob	-383
▁work	-384
▁what	-385
gr	-386
▁if	-387
▁there	-388
lp	-389
wn	-390
you	-391
vers	-392
old	-393
▁than	-394
ade	-395
oy	-396
ater	-397
▁know	-398
ning	-399
fter	-400
▁would	-401
▁am	-402
▁sc	-403
▁had	-404
clud	-405
▁comm	-406
▁des	-407
rough	-408
▁were	-409
▁into	-410
▁–	-411
ory	-412
▁rec	-413
▁4	-414
man	-415
ople	-416
▁help	-417
▁how	-418
nder	-419
itt	-420
▁its	-421
▁em	-422
ful	-423
▁add	-424
▁5	-425
▁first	-426
je	-427
ool	-428
ft	-429
▁tw	-430
▁make	-431
but	-432
anc	-433
▁prov	-434
▁includ	-435
ink	-436
▁people	-437
▁serv	-438
ian	-439
▁col	-440
▁no	-441
ex	-442
▁bl	-443
end	-444
rent	-445
▁produ	-446
ict	-447
iew	-448
get	-449
ates	-450
▁she	-451
▁bu	-452
ious	-453
round	-454
tern	-455
▁every	-456
ual	-457
▁bec	-458
aw	-459
▁may	-460
▁through	-461
ices	-462
ating	-463
up	-464
▁only	-465
sp	-466
▁want	-467
ments	-468
▁most	-469
▁back	-470
pport	-471
new	-472
▁ph	-473
▁see	-474
▁use	-475
bs	-476
▁well	-477
ities	-478
▁bet	-479
arch	-480
wor	-481
▁two	-482
cts	-483
co	-484
▁|	-485
ise	-486
iss	-487
iness	-488
les	-489
▁after	-490
ife	-491
row	-492
air	-493
lect	-494
ause	-495
fore	-496
▁&	-497
enc	-498
ily	-499
ty	-500
▁co	-501
oth	-502
▁act	-503
br	-504
▁play	-505
ons	-506
▁exper	-507
xt	-508
▁fl	-509
urn	-510
tr	-511
whe	-512
ting	-513
ond	-514
▁these	-515
▁cons	-516
als	-517
cial	-518
▁years	-519
cent	-520
sel	-521
vent	-522
▁$	-523
▁under	-524
▁bus	-525
fr	-526
alth	-527
cre	-528
▁stud	-529
aking	-530
▁good	-531
▁loc	-532
ased	-533
ts	-534
▁ke	-535
▁now	-536
▁tra	-537
ational	-538
ific	-539
▁19	-540
ubl	-541
▁sm	-542
▁very	-543
▁many	-544
ures	-545
▁reg	-546
hing	-547
its	-548
any	-549
▁6	-550
ange	-551
▁dif	-552
▁way	-553
ience	-554
fect	-555
▁wee	-556
ms	-557
erson	-558
oint	-559
formation	-560
▁ind	-561
▁great	-562
▁fin	-563
▁rel	-564
▁start	-565
uring	-566
▁sy	-567
▁gu	-568
ility	-569
ible	-570
other	-571
read	-572
▁rem	-573
ert	-574
pr	-575
ics	-576
ident	-577
ath	-578
▁could	-579
▁even	-580
▁inv	-581
comm	-582
).	-583
▁day	-584
▁don	-585
velop	-586
▁show	-587
▁own	-588
▁acc	-589
▁where	-590
oss	-591
▁mu	-592
▁find	-593
amp	-594
▁high	-595
hed	-596
line	-597
olog	-598
▁home	-599
ble	-600
▁here	-601
▁should	-602
▁ent	-603
▁best	-604
▁br	-605
▁then	-606
▁down	-607
ward	-608
arn	-609
ular	-610
chool	-611
▁right	-612
me	-613
▁set	-614
ited	-615
ix	-616
ied	-617
▁av	-618
▁ass	-619
▁mon	-620
sc	-621
▁read	-622
▁car	-623
▁min	-624
gan	-625
||	-626
▁design	-627
stem	-628
▁business	-629
▁fam	-630
view	-631
▁take	-632
fl	-633
▁200	-634
pect	-635
▁che	-636
▁inst	-637
eng	-638
io	-639
ener	-640
ax	-641
ock	-642
▁too	-643
▁7	-644
land	-645
min	-646
ys	-647
rest	-648
▁information	-649
ative	-650
way	-651
ull	-652
▁10	-653
▁much	-654
▁long	-655
gram	-656
▁made	-657
app	-658
mon	-659
ps	-660
ins	-661
▁last	-662
az	-663
ollow	-664
med	-665
.”	-666
ject	-667
ason	-668
omet	-669
▁because	-670
arket	-671
▁8	-672
▁call	-673
how	-674
oun	-675
atch	-676
▁before	-677
ash	-678
...	-679
let	-680
▁cre	-681
ient	-682
▁world	-683
uc	-684
▁team	-685
),	-686
there	-687
▁did	-688
20	-689
amer	-690
rit	-691
ave	-692
▁sur	-693
chn	-694
ustom	-695
▁vis	-696
▁art	-697
▁again	-698
ros	-699
▁requ	-700
ner	-701
▁develop	-702
▁diffe	-703
▁person	-704
ality	-705
bo	-706
▁being	-707
▁dec	-708
▁pres	-709
mer	-710
▁inte	-711
▁mem	-712
ower	-713
▁end	-714
▁such	-715
aut	-716
▁gr	-717
unity	-718
not	-719
▁life	-720
▁hand	-721
ving	-722
▁op	-723
ale	-724
ouse	-725
riend	-726
my	-727
▁look	-728
no	-729
▁him	-730
ince	-731
▁med	-732
▁does	-733
▁while	-734
▁those	-735
irect	-736
▁support	-737
▁provid	-738
ank	-739
ement	-740
ced	-741
▁sk	-742
ger	-743
▁sim	-744
ital	-745
ages	-746
akes	-747
ters	-748
ces	-749
▁mod	-750
ton	-751
▁lead	-752
der	-753
▁used	-754
col	-755
ailable	-756
▁free	-757
what	-758
▁around	-759
▁att	-760
rand	-761
▁cur	-762
hip	-763
ives	-764
ier	-765
▁pol	-766
ivers	-767
▁each	-768
ional	-769
▁9	-770
they	-771
▁care	-772
ize	-773
ually	-774
▁follow	-775
▁post	-776
▁det	-777
▁trans	-778
▁love	-779
by	-780
ah	-781
▁bo	-782
▁loo	-783
ublic	-784
ather	-785
▁child	-786
▁char	-787
self	-788
▁eas	-789
und	-790
▁system	-791
▁ret	-792
she	-793
▁ed	-794
▁num	-795
▁ser	-796
ines	-797
do	-798
▁cour	-799
imes	-800
▁really	-801
cur	-802
ets	-803
▁str	-804
▁program	-805
▁custom	-806
▁count	-807
▁inter	-808
ene	-809
▁del	-810
led	-811
ness	-812
ub	-813
▁list	-814
▁found	-815
,”	-816
iel	-817
▁run	-818
iet	-819
000	-820
▁month	-821
▁prof	-822
▁ra	-823
fin	-824
▁available	-825
▁feel	-826
▁ins	-827
▁think	-828
ittle	-829
ten	-830
▁top	-831
ways	-832
with	-833
▁fun	-834
▁going	-835
▁cle	-836
▁sign	-837
cond	-838
ann	-839
jo	-840
ames	-841
arm	-842
▁somet	-843
▁still	-844
olut	-845
▁sub	-846
▁gl	-847
▁market	-848
▁place	-849
▁fr	-850
gg	-851
▁different	-852
cept	-853
ved	-854
▁both	-855
▁few	-856
▁health	-857
que	-858
ired	-859
lic	-860
▁three	-861
▁though	-862
mar	-863
orn	-864
▁pur	-865
ata	-866
ross	-867
▁happ	-868
bers	-869
▁adv	-870
▁techn	-871
▁week	-872
▁lot	-873
▁exp	-874
part	-875
of	-876
▁keep	-877
▁company	-878
ween	-879
lease	-880
when	-881
▁open	-882
▁report	-883
▁lar	-884
ants	-885
ars	-886
atur	-887
lo	-888
▁0	-889
▁friend	-890
less	-891
▁process	-892
▁family	-893
ering	-894
▁using	-895
ology	-896
▁feat	-897
▁say	-898
americ	-899
▁rep	-900
▁school	-901
▁fil	-902
▁i	-903
▁met	-904
▁ev	-905
▁game	-906
▁aut	-907
▁including	-908
▁import	-909
▁little	-910
▁point	-911
▁same	-912
ized	-913
go	-914
alk	-915
▁experience	-916
stand	-917
▁between	-918
iving	-919
▁during	-920
▁state	-921
▁next	-922
thing	-923
▁comple	-924
."	-925
-1	-926
ues	-927
ves	-928
ody	-929
▁service	-930
ever	-931
▁water	-932
▁disc	-933
tra	-934
▁real	-935
ining	-936
▁allow	-937
▁build	-938
▁opt	-939
ished	-940
▁things	-941
▁come	-942
▁dri	-943
pre	-944
gy	-945
▁contin	-946
▁var	-947
ric	-948
roup	-949
search	-950
▁ear	-951
▁tri	-952
ield	-953
▁small	-954
ists	-955
▁cr	-956
▁cent	-957
▁plan	-958
▁form	-959
par	-960
work	-961
▁rece	-962
ik	-963
▁appro	-964
▁organ	-965
att	-966
▁rest	-967
▁main	-968
cer	-969
▁always	-970
▁big	-971
▁sure	-972
els	-973
▁online	-974
uss	-975
▁mus	-976
nor	-977
▁bel	-978
joy	-979
▁win	-980
▁better	-981
car	-982
▁full	-983
▁interest	-984
ffect	-985
▁pat	-986
▁poss	-987
ards	-988
▁put	-989
▁pass	-990
oot	-991
▁pri	-992
▁ty	-993
ware	-994
illion	-995
chr	-996
▁since	-997
▁gener	-998
▁quest	-999
cri	-1000
▁ve	-1001
▁try	-1002
▁result	-1003
that	-1004
▁sl	-1005
fer	-1006
ott	-1007
istr	-1008
reen	-1009
▁stand	-1010
▁days	-1011
iversity	-1012
off	-1013
▁today	-1014
gu	-1015
▁phot	-1016
▁12	-1017
▁direct	-1018
▁class	-1019
▁special	-1020
ploy	-1021
▁ide	-1022
▁partic	-1023
▁mov	-1024
ours	-1025
▁val	-1026
▁services	-1027
ients	-1028
▁perform	-1029
▁provide	-1030
▁head	-1031
▁something	-1032
sw	-1033
▁pay	-1034
ok	-1035
▁manag	-1036
ont	-1037
can	-1038
pa	-1039
,000	-1040
▁second	-1041
▁resp	-1042
sy	-1043
▁ann	-1044
▁got	-1045
▁cor	-1046
▁hard	-1047
ipp	-1048
▁without	-1049
▁vide	-1050
▁let	-1051
▁bro	-1052
vir	-1053
▁number	-1054
vis	-1055
▁another	-1056
oney	-1057
▁int	-1058
▁current	-1059
▁give	-1060
▁must	-1061
▁ter	-1062
ope	-1063
▁wom	-1064
▁access	-1065
ior	-1066
ately	-1067
▁old	-1068
here	-1069
ium	-1070
▁book	-1071
▁able	-1072
ically	-1073
▁webs	-1074
▁‘	-1075
▁important	-1076
gin	-1077
ral	-1078
raph	-1079
▁grow	-1080
▁cost	-1081
▁soc	-1082
▁meet	-1083
▁area	-1084
,"	-1085
dr	-1086
▁invest	-1087
▁—	-1088
cont	-1089
ems	-1090
ruct	-1091
▁fact	-1092
50	-1093
▁light	-1094
ling	-1095
▁bre	-1096
▁working	-1097
▁wr	-1098
ertain	-1099
▁imp	-1100
son	-1101
▁visit	-1102
▁public	-1103
▁unt	-1104
most	-1105
ample	-1106
▁proble	-1107
may	-1108
aj	-1109
vern	-1110
▁incre	-1111
bu	-1112
ww	-1113
ense	-1114
▁proper	-1115
▁looking	-1116
room	-1117
rol	-1118
▁level	-1119
▁suc	-1120
rence	-1121
hes	-1122
▁data	-1123
ley	-1124
▁sal	-1125
▁order	-1126
add	-1127
count	-1128
▁never	-1129
outh	-1130
▁exc	-1131
ember	-1132
book	-1133
▁might	-1134
more	-1135
ency	-1136
just	-1137
ds	-1138
ential	-1139
▁expl	-1140
ute	-1141
▁fac	-1142
fort	-1143
▁students	-1144
gether	-1145
pend	-1146
▁food	-1147
▁event	-1148
▁offer	-1149
▁local	-1150
▁site	-1151
▁profess	-1152
▁enjoy	-1153
play	-1154
▁eng	-1155
▁spec	-1156
▁dr	-1157
ission	-1158
▁four	-1159
comp	-1160
tend	-1161
▁11	-1162
▁children	-1163
▁within	-1164
▁room	-1165
▁view	-1166
▁season	-1167
▁making	-1168
lection	-1169
▁addition	-1170
ording	-1171
▁pos	-1172
come	-1173
▁test	-1174
▁products	-1175
por	-1176
cle	-1177
hor	-1178
▁oper	-1179
▁prom	-1180
▁sing	-1181
▁sit	-1182
▁product	-1183
▁18	-1184
ories	-1185
ids	-1186
30	-1187
▁power	-1188
ently	-1189
▁until	-1190
ney	-1191
▁night	-1192
▁community	-1193
▁'	-1194
ats	-1195
▁pop	-1196
serv	-1197
val	-1198
▁email	-1199
ribut	-1200
ched	-1201
▁quality	-1202
▁el	-1203
ca	-1204
▁supp	-1205
▁ca	-1206
▁less	-1207
ieve	-1208
ases	-1209
your	-1210
year	-1211
ains	-1212
ivid	-1213
ature	-1214
▁against	-1215
▁est	-1216
des	-1217
▁conf	-1218
▁indust	-1219
▁ob	-1220
▁intern	-1221
use	-1222
ator	-1223
ills	-1224
▁website	-1225
▁impro	-1226
ode	-1227
▁job	-1228
ches	-1229
▁prote	-1230
university	-1231
aff	-1232
ste	-1233
ified	-1234
10	-1235
tt	-1236
▁turn	-1237
▁creat	-1238
▁equ	-1239
▁contact	-1240
▁law	-1241
icle	-1242
▁mar	-1243
▁project	-1244
▁past	-1245
ique	-1246
▁away	-1247
ina	-1248
▁together	-1249
ider	-1250
christ	-1251
▁air	-1252
▁learn	-1253
after	-1254
these	-1255
ined	-1256
tw	-1257
inc	-1258
▁eff	-1259
gl	-1260
face	-1261
ability	-1262
pos	-1263
iday	-1264
rap	-1265
▁15	-1266
▁pract	-1267
reg	-1268
▁complete	-1269
ng	-1270
sm	-1271
over	-1272
ared	-1273
▁success	-1274
▁bas	-1275
▁needs	-1276
atter	-1277
▁easy	-1278
▁include	-1279
▁leg	-1280
▁detail	-1281
utes	-1282
▁30	-1283
ries	-1284
ocus	-1285
▁tru	-1286
▁applic	-1287
time	-1288
aster	-1289
▁large	-1290
igin	-1291
iety	-1292
ready	-1293
iver	-1294
cal	-1295
▁course	-1296
cor	-1297
▁.	-1298
yle	-1299
▁beaut	-1300
▁offic	-1301
free	-1302
arent	-1303
pm	-1304
back	-1305
oci	-1306
▁along	-1307
▁change	-1308
ream	-1309
▁dist	-1310
▁employ	-1311
leg	-1312
ump	-1313
▁ask	-1314
ips	-1315
please	-1316
cut	-1317
▁name	-1318
▁present	-1319
ju	-1320
▁chang	-1321
▁check	-1322
▁says	-1323
ury	-1324
▁video	-1325
side	-1326
▁group	-1327
▁pain	-1328
load	-1329
ism	-1330
ised	-1331
▁near	-1332
▁activ	-1333
ring	-1334
opp	-1335
la	-1336
iting	-1337
▁cap	-1338
enef	-1339
▁please	-1340
bar	-1341
▁members	-1342
ird	-1343
une	-1344
▁expect	-1345
▁buy	-1346
cour	-1347
▁money	-1348
▁pa	-1349
▁times	-1350
itions	-1351
hn	-1352
▁fav	-1353
ify	-1354
▁house	-1355
net	-1356
augh	-1357
ift	-1358
uk	-1359
▁perfect	-1360
irl	-1361
bro	-1362
▁ref	-1363
▁opport	-1364
▁beh	-1365
ffe	-1366
ising	-1367
alf	-1368
▁music	-1369
ane	-1370
▁why	-1371
ered	-1372
vernment	-1373
eu	-1374
ote	-1375
!!	-1376
ably	-1377
▁dem	-1378
▁case	-1379
veral	-1380
pecial	-1381
aterial	-1382
▁/	-1383
▁treat	-1384
aring	-1385
▁hist	-1386
▁create	-1387
▁live	-1388
▁below	-1389
mber	-1390
▁following	-1391
oor	-1392
ots	-1393
▁short	-1394
ery	-1395
▁thing	-1396
▁account	-1397
▁hot	-1398
viron	-1399
▁cond	-1400
▁const	-1401
ention	-1402
ball	-1403
▁line	-1404
▁page	-1405
▁side	-1406
▁ce	-1407
▁story	-1408
▁sw	-1409
ived	-1410
ization	-1411
▁understand	-1412
▁having	-1413
nect	-1414
▁review	-1415
pres	-1416
itive	-1417
▁[	-1418
▁million	-1419
▁trad	-1420
dis	-1421
fact	-1422
urs	-1423
▁par	-1424
▁hum	-1425
ored	-1426
▁dev	-1427
state	-1428
ision	-1429
▁makes	-1430
▁la	-1431
while	-1432
▁focus	-1433
▁personal	-1434
▁based	-1435
uck	-1436
▁move	-1437
▁effect	-1438
▁research	-1439
▁works	-1440
don	-1441
▁across	-1442
▁left	-1443
ny	-1444
ma	-1445
ienc	-1446
ford	-1447
▁possible	-1448
▁comes	-1449
▁kind	-1450
ron	-1451
▁camp	-1452
ividual	-1453
▁ever	-1454
▁getting	-1455
▁already	-1456
▁writ	-1457
▁pot	-1458
▁benef	-1459
ances	-1460
osp	-1461
▁soft	-1462
vious	-1463
ush	-1464
uture	-1465
aces	-1466
john	-1467
▁educ	-1468
▁elect	-1469
▁share	-1470
ajor	-1471
▁bit	-1472
▁country	-1473
ister	-1474
raw	-1475
▁done	-1476
iam	-1477
light	-1478
▁become	-1479
▁record	-1480
american	-1481
intern	-1482
ai	-1483
city	-1484
▁several	-1485
▁nor	-1486
▁es	-1487
▁news	-1488
af	-1489
▁often	-1490
oice	-1491
iven	-1492
inst	-1493
pol	-1494
▁enough	-1495
▁minutes	-1496
aim	-1497
ured	-1498
▁social	-1499
unch	-1500
▁issu	-1501
▁quick	-1502
▁tre	-1503
house	-1504
▁mil	-1505
▁:	-1506
▁far	-1507
▁won	-1508
iful	-1509
nov	-1510
▁vers	-1511
▁body	-1512
raft	-1513
olution	-1514
▁bring	-1515
▁women	-1516
▁cut	-1517
▁fund	-1518
▁boo	-1519
▁hours	-1520
▁development	-1521
▁mult	-1522
▁net	-1523
vironment	-1524
▁jo	-1525
▁ext	-1526
▁purch	-1527
jan	-1528
▁tell	-1529
ides	-1530
ze	-1531
mc	-1532
▁cou	-1533
conom	-1534
pri	-1535
▁return	-1536
▁city	-1537
school	-1538
ones	-1539
1.	-1540
▁men	-1541
right	-1542
mal	-1543
ograph	-1544
▁ste	-1545
▁lo	-1546
▁sum	-1547
▁pack	-1548
sk	-1549
▁individual	-1550
▁deal	-1551
lege	-1552
from	-1553
head	-1554
tain	-1555
rec	-1556
ork	-1557
▁material	-1558
▁non	-1559
ateg	-1560
▁clean	-1561
ns	-1562
▁travel	-1563
nes	-1564
ners	-1565
▁pie	-1566
str	-1567
po	-1568
▁started	-1569
however	-1570
▁called	-1571
▁hold	-1572
▁months	-1573
reet	-1574
▁friends	-1575
met	-1576
▁others	-1577
▁industry	-1578
yes	-1579
well	-1580
idd	-1581
▁mom	-1582
▁compet	-1583
ham	-1584
▁100	-1585
post	-1586
ource	-1587
▁land	-1588
-2	-1589
aust	-1590
indow	-1591
ination	-1592
osed	-1593
▁future	-1594
▁didn	-1595
▁space	-1596
some	-1597
▁doing	-1598
▁sol	-1599
lish	-1600
ption	-1601
▁14	-1602
har	-1603
▁rele	-1604
▁16	-1605
god	-1606
▁low	-1607
unic	-1608
▁wa	-1609
▁control	-1610
▁store	-1611
where	-1612
arning	-1613
▁cover	-1614
ser	-1615
▁major	-1616
▁#	-1617
▁*	-1618
na	-1619
▁oc	-1620
▁blog	-1621
▁origin	-1622
acy	-1623
▁offers	-1624
.,	-1625
west	-1626
roll	-1627
▁yet	-1628
▁1.	-1629
ference	-1630
gar	-1631
ster	-1632
anies	-1633
▁brand	-1634
▁key	-1635
▁means	-1636
curity	-1637
cy	-1638
▁mind	-1639
jects	-1640
▁chall	-1641
▁comb	-1642
aug	-1643
▁lim	-1644
▁games	-1645
▁features	-1646
▁pict	-1647
▁doesn	-1648
commend	-1649
▁took	-1650
▁came	-1651
ilities	-1652
▁range	-1653
world	-1654
united	-1655
▁invol	-1656
date	-1657
▁customers	-1658
▁percent	-1659
▁least	-1660
▁specific	-1661
ask	-1662
▁five	-1663
▁strong	-1664
urther	-1665
▁step	-1666
▁price	-1667
2.	-1668
high	-1669
▁heart	-1670
duct	-1671
will	-1672
▁require	-1673
bed	-1674
▁once	-1675
▁fore	-1676
ern	-1677
▁close	-1678
tract	-1679
ither	-1680
ilt	-1681
last	-1682
▁tool	-1683
oose	-1684
mat	-1685
▁24	-1686
ged	-1687
cr	-1688
wood	-1689
hol	-1690
nam	-1691
▁mean	-1692
▁stay	-1693
▁tem	-1694
▁discuss	-1695
▁install	-1696
org	-1697
atural	-1698
dep	-1699
illed	-1700
▁series	-1701
board	-1702
▁x	-1703
▁early	-1704
▁beautiful	-1705
see	-1706
resh	-1707
ources	-1708
ye	-1709
▁tal	-1710
bre	-1711
▁government	-1712
char	-1713
▁hope	-1714
▁hig	-1715
▁priv	-1716
aken	-1717
▁technology	-1718
anks	-1719
▁redu	-1720
▁announ	-1721
oct	-1722
▁charac	-1723
▁thought	-1724
//	-1725
▁questions	-1726
rain	-1727
▁appear	-1728
▁begin	-1729
▁ago	-1730
▁typ	-1731
▁happen	-1732
ancial	-1733
▁went	-1734
down	-1735
gle	-1736
▁13	-1737
▁told	-1738
▁super	-1739
▁anal	-1740
irm	-1741
itor	-1742
stud	-1743
rel	-1744
▁single	-1745
acc	-1746
wards	-1747
south	-1748
like	-1749
://	-1750
▁everything	-1751
lab	-1752
▁content	-1753
▁favor	-1754
bur	-1755
york	-1756
north	-1757
aps	-1758
▁certain	-1759
▁clear	-1760
press	-1761
▁--	-1762
rs	-1763
gs	-1764
▁ens	-1765
▁added	-1766
▁environment	-1767
euro	-1768
▁building	-1769
▁port	-1770
▁25	-1771
apr	-1772
▁field	-1773
▁>	-1774
ians	-1775
▁search	-1776
fully	-1777
national	-1778
cast	-1779
icy	-1780
rop	-1781
▁companies	-1782
▁young	-1783
▁tot	-1784
wed	-1785
ports	-1786
▁known	-1787
vert	-1788
▁media	-1789
▁2.	-1790
▁tax	-1791
▁mess	-1792
▁ener	-1793
▁address	-1794
isk	-1795
▁study	-1796
▁actually	-1797
1,	-1798
▁recommend	-1799
ply	-1800
ief	-1801
hers	-1802
▁girl	-1803
▁press	-1804
ibr	-1805
lebr	-1806
county	-1807
▁improve	-1808
▁taking	-1809
ret	-1810
mit	-1811
center	-1812
▁vol	-1813
▁17	-1814
ural	-1815
hod	-1816
▁training	-1817
▁card	-1818
ama	-1819
unities	-1820
▁sound	-1821
▁contr	-1822
ided	-1823
ests	-1824
hy	-1825
▁professional	-1826
▁later	-1827
▁staff	-1828
pet	-1829
atest	-1830
▁•	-1831
opy	-1832
▁ident	-1833
▁watch	-1834
▁unique	-1835
▁def	-1836
friday	-1837
ensive	-1838
▁official	-1839
▁results	-1840
ocu	-1841
▁problem	-1842
ram	-1843
▁someone	-1844
bus	-1845
▁provides	-1846
▁issues	-1847
▁2013	-1848
name	-1849
▁face	-1850
▁film	-1851
public	-1852
▁host	-1853
ctor	-1854
▁half	-1855
care	-1856
▁everyone	-1857
elf	-1858
uff	-1859
▁seen	-1860
▁sell	-1861
▁bar	-1862
▁due	-1863
prof	-1864
▁web	-1865
▁mot	-1866
▁simple	-1867
health	-1868
201	-1869
eral	-1870
▁199	-1871
coming	-1872
▁dig	-1873
▁50	-1874
▁respons	-1875
ape	-1876
▁oil	-1877
pat	-1878
set	-1879
▁office	-1880
ino	-1881
▁relations	-1882
▁ess	-1883
itted	-1884
gest	-1885
▁miss	-1886
▁(1	-1887
▁mor	-1888
▁particular	-1889
atic	-1890
▁econom	-1891
sue	-1892
park	-1893
▁front	-1894
ibility	-1895
▁management	-1896
▁particip	-1897
phone	-1898
▁aud	-1899
urch	-1900
▁connect	-1901
place	-1902
top	-1903
▁cred	-1904
▁whole	-1905
enn	-1906
iod	-1907
obile	-1908
▁age	-1909
▁areas	-1910
asing	-1911
inter	-1912
▁break	-1913
▁wond	-1914
pecially	-1915
▁performance	-1916
▁repres	-1917
▁bed	-1918
▁fall	-1919
▁tour	-1920
ety	-1921
spe	-1922
ging	-1923
march	-1924
mo	-1925
satur	-1926
ables	-1927
lin	-1928
▁z	-1929
tty	-1930
5.	-1931
tc	-1932
▁color	-1933
▁log	-1934
▁above	-1935
▁author	-1936
▁given	-1937
▁black	-1938
▁size	-1939
imate	-1940
▁designed	-1941
▁details	-1942
ators	-1943
▁events	-1944
▁$1	-1945
▁experienc	-1946
sept	-1947
▁six	-1948
▁reason	-1949
▁htt	-1950
ges	-1951
▁assist	-1952
▁energy	-1953
ica	-1954
based	-1955
▁among	-1956
irt	-1957
▁believe	-1958
ilar	-1959
ogn	-1960
▁select	-1961
ites	-1962
▁publ	-1963
idence	-1964
mor	-1965
ison	-1966
9.	-1967
direct	-1968
used	-1969
▁foot	-1970
▁ant	-1971
june	-1972
li	-1973
oved	-1974
▁sex	-1975
europe	-1976
▁amount	-1977
▁history	-1978
▁includes	-1979
▁further	-1980
ulation	-1981
▁cal	-1982
ee	-1983
aur	-1984
▁mag	-1985
▁property	-1986
key	-1987
manag	-1988
elt	-1989
was	-1990
ruction	-1991
ufact	-1992
▁prob	-1993
obal	-1994
▁effort	-1995
sund	-1996
▁cult	-1997
▁soon	-1998
▁print	-1999
▁continue	-2000
▁parent	-2001
bor	-2002
▁inc	-2003
mas	-2004
his	-2005
then	-2006
aily	-2007
▁latest	-2008
astic	-2009
▁text	-2010
ada	-2011
april	-2012
ledge	-2013
itional	-2014
▁anything	-2015
▁link	-2016
▁compl	-2017
▁coming	-2018
▁value	-2019
▁according	-2020
▁points	-2021
fo	-2022
ille	-2023
ouch	-2024
▁various	-2025
▁question	-2026
ug	-2027
urance	-2028
▁living	-2029
▁fre	-2030
▁phys	-2031
▁type	-2032
every	-2033
nding	-2034
▁phone	-2035
saturday	-2036
▁forward	-2037
▁popular	-2038
ental	-2039
▁white	-2040
weet	-2041
▁defin	-2042
many	-2043
inking	-2044
▁pick	-2045
ands	-2046
uation	-2047
tv	-2048
▁weeks	-2049
first	-2050
ained	-2051
mic	-2052
▁entire	-2053
▁celebr	-2054
icated	-2055
aching	-2056
▁concer	-2057
sal	-2058
itch	-2059
ese	-2060
▁consider	-2061
▁protect	-2062
▁dou	-2063
▁safe	-2064
ops	-2065
▁whether	-2066
▁idea	-2067
▁di	-2068
▁taken	-2069
ming	-2070
▁ready	-2071
▁receive	-2072
4.	-2073
sing	-2074
▁wide	-2075
2,	-2076
news	-2077
ding	-2078
july	-2079
:00	-2080
▁opportunity	-2081
fic	-2082
▁claim	-2083
dav	-2084
ler	-2085
ship	-2086
▁needed	-2087
▁date	-2088
▁track	-2089
word	-2090
▁consum	-2091
▁fire	-2092
black	-2093
▁comput	-2094
▁required	-2095
mr	-2096
▁potential	-2097
selves	-2098
▁skin	-2099
ray	-2100
▁ensure	-2101
▁comfort	-2102
feb	-2103
home	-2104
▁meas	-2105
▁sent	-2106
▁docu	-2107
ana	-2108
▁kids	-2109
▁currently	-2110
▁pretty	-2111
▁talk	-2112
▁items	-2113
ried	-2114
▁sugg	-2115
▁paper	-2116
ises	-2117
kend	-2118
ples	-2119
iate	-2120
▁yourself	-2121
▁financial	-2122
▁ach	-2123
▁bad	-2124
▁relationship	-2125
▁style	-2126
▁natural	-2127
life	-2128
▁flow	-2129
itter	-2130
ival	-2131
▁quite	-2132
▁lab	-2133
▁almost	-2134
▁hom	-2135
▁,	-2136
mb	-2137
▁veh	-2138
ii	-2139
▁options	-2140
▁common	-2141
clus	-2142
monday	-2143
ires	-2144
uary	-2145
▁ways	-2146
▁box	-2147
▁example	-2148
▁human	-2149
▁third	-2150
▁trying	-2151
▁answ	-2152
▁period	-2153
▁fit	-2154
▁especially	-2155
put	-2156
▁road	-2157
▁either	-2158
aging	-2159
▁happy	-2160
▁final	-2161
▁inde	-2162
▁provided	-2163
itting	-2164
▁member	-2165
▁attend	-2166
sunday	-2167
azing	-2168
▁clients	-2169
▁via	-2170
ek	-2171
▁descri	-2172
pper	-2173
▁choose	-2174
soc	-2175
verage	-2176
aged	-2177
▁dam	-2178
ees	-2179
oh	-2180
▁3.	-2181
olutions	-2182
▁summer	-2183
▁users	-2184
▁extra	-2185
ively	-2186
▁jour	-2187
▁engine	-2188
▁held	-2189
▁throughout	-2190
▁crit	-2191
▁hon	-2192
den	-2193
war	-2194
▁2017	-2195
▁famil	-2196
angu	-2197
ted	-2198
▁recent	-2199
ishing	-2200
▁wanted	-2201
sim	-2202
aced	-2203
san	-2204
cas	-2205
sa	-2206
▁recently	-2207
60	-2208
▁created	-2209
design	-2210
ux	-2211
sen	-2212
▁hol	-2213
▁version	-2214
know	-2215
▁download	-2216
mus	-2217
click	-2218
▁bott	-2219
oogle	-2220
▁previous	-2221
8.	-2222
▁impact	-2223
▁issue	-2224
ober	-2225
cons	-2226
▁self	-2227
▁couple	-2228
▁takes	-2229
6.	-2230
gress	-2231
▁sales	-2232
▁tit	-2233
coun	-2234
uge	-2235
▁behind	-2236
ground	-2237
▁red	-2238
ecut	-2239
president	-2240
ume	-2241
▁insp	-2242
▁deter	-2243
▁running	-2244
▁init	-2245
/2	-2246
ole	-2247
▁war	-2248
▁ele	-2249
▁software	-2250
bi	-2251
ficult	-2252
ades	-2253
loc	-2254
▁education	-2255
law	-2256
▁table	-2257
▁seem	-2258
▁method	-2259
▁isn	-2260
▁reading	-2261
▁received	-2262
star	-2263
▁cup	-2264
▁favorite	-2265
▁pan	-2266
▁problems	-2267
itten	-2268
anced	-2269
inks	-2270
▁song	-2271
▁nice	-2272
▁represent	-2273
▁stri	-2274
▁click	-2275
▁shows	-2276
▁er	-2277
▁cool	-2278
rew	-2279
▁role	-2280
atform	-2281
▁walk	-2282
3.	-2283
▁fresh	-2284
▁increase	-2285
▁regular	-2286
ung	-2287
states	-2288
▁customer	-2289
▁collect	-2290
▁security	-2291
▁else	-2292
aby	-2293
october	-2294
▁fast	-2295
mich	-2296
lim	-2297
idge	-2298
ification	-2299
▁sle	-2300
▁skills	-2301
associ	-2302
▁players	-2303
ffic	-2304
▁party	-2305
ken	-2306
▁difficult	-2307
▁action	-2308
ror	-2309
rodu	-2310
▁original	-2311
road	-2312
september	-2313
mod	-2314
icles	-2315
overed	-2316
▁simply	-2317
also	-2318
bit	-2319
▁signific	-2320
▁writing	-2321
oid	-2322
▁likely	-2323
▁outside	-2324
gree	-2325
▁hair	-2326
▁morning	-2327
40	-2328
cil	-2329
▁wonder	-2330
istration	-2331
gener	-2332
band	-2333
artment	-2334
▁article	-2335
aving	-2336
▁inside	-2337
--	-2338
wes	-2339
oll	-2340
▁model	-2341
▁position	-2342
▁probably	-2343
ba	-2344
ev	-2345
austral	-2346
▁necess	-2347
▁learning	-2348
▁manufact	-2349
▁exam	-2350
▁asked	-2351
▁ground	-2352
hen	-2353
facebook	-2354
▁anim	-2355
america	-2356
ague	-2357
chen	-2358
▁ful	-2359
▁leave	-2360
hold	-2361
google	-2362
box	-2363
indows	-2364
ha	-2365
ipping	-2366
▁systems	-2367
bel	-2368
aker	-2369
▁release	-2370
list	-2371
▁sun	-2372
istrict	-2373
iple	-2374
august	-2375
▁hy	-2376
▁mix	-2377
january	-2378
market	-2379
hib	-2380
▁application	-2381
▁located	-2382
mark	-2383
thurs	-2384
25	-2385
▁contribut	-2386
water	-2387
▁ri	-2388
▁knowledge	-2389
▁screen	-2390
▁continu	-2391
▁coun	-2392
iqu	-2393
▁goal	-2394
▁contract	-2395
▁changes	-2396
▁...	-2397
eth	-2398
nal	-2399
▁lives	-2400
cing	-2401
▁projects	-2402
tues	-2403
▁stop	-2404
▁+	-2405
▁hit	-2406
oly	-2407
check	-2408
▁exist	-2409
▁board	-2410
▁medical	-2411
▁etc	-2412
adem	-2413
▁additional	-2414
▁anyone	-2415
▁private	-2416
▁ple	-2417
▁recogn	-2418
ellow	-2419
▁total	-2420
tod	-2421
80	-2422
▁activities	-2423
▁abs	-2424
-0	-2425
▁sat	-2426
pal	-2427
▁town	-2428
business	-2429
▁however	-2430
▁2014	-2431
ooking	-2432
▁cir	-2433
▁saf	-2434
▁treatment	-2435
ipment	-2436
▁communic	-2437
iol	-2438
▁accept	-2439
▁included	-2440
▁risk	-2441
wel	-2442
99	-2443
action	-2444
field	-2445
▁40	-2446
▁career	-2447
iter	-2448
ening	-2449
ules	-2450
miss	-2451
▁autom	-2452
.)	-2453
cover	-2454
▁matter	-2455
▁kit	-2456
best	-2457
izing	-2458
street	-2459
▁fail	-2460
tim	-2461
▁mach	-2462
aign	-2463
arget	-2464
▁former	-2465
about	-2466
trans	-2467
▁growth	-2468
▁looks	-2469
▁books	-2470
▁polit	-2471
class	-2472
ovember	-2473
found	-2474
thursday	-2475
▁meeting	-2476
del	-2477
real	-2478
▁words	-2479
▁variety	-2480
dom	-2481
▁bir	-2482
▁wall	-2483
▁202	-2484
phot	-2485
ony	-2486
ville	-2487
▁drive	-2488
▁longer	-2489
▁lay	-2490
ude	-2491
ercial	-2492
▁match	-2493
november	-2494
▁production	-2495
▁mat	-2496
tuesday	-2497
▁similar	-2498
▁practice	-2499
▁round	-2500
▁stor	-2501
rem	-2502
▁2010	-2503
▁weekend	-2504
▁function	-2505
service	-2506
▁playing	-2507
good	-2508
▁upd	-2509
▁leaders	-2510
▁significant	-2511
ipe	-2512
airs	-2513
example	-2514
▁character	-2515
rect	-2516
win	-2517
adu	-2518
wednes	-2519
▁worth	-2520
▁2012	-2521
mp	-2522
▁ball	-2523
department	-2524
friend	-2525
▁suggest	-2526
international	-2527
▁wel	-2528
arter	-2529
soft	-2530
▁cook	-2531
▁fig	-2532
▁worked	-2533
imum	-2534
▁late	-2535
bt	-2536
▁programs	-2537
erg	-2538
▁purchase	-2539
▁police	-2540
▁platform	-2541
▁amazing	-2542
▁clos	-2543
why	-2544
▁associ	-2545
▁death	-2546
▁infl	-2547
lier	-2548
▁photos	-2549
11	-2550
ought	-2551
▁repl	-2552
▁challeng	-2553
ights	-2554
▁send	-2555
▁allows	-2556
labor	-2557
wal	-2558
itut	-2559
-3	-2560
▁cand	-2561
▁true	-2562
group	-2563
hood	-2564
▁general	-2565
ession	-2566
▁international	-2567
oud	-2568
bon	-2569
▁plans	-2570
▁nothing	-2571
▁built	-2572
wednesday	-2573
mission	-2574
▁chance	-2575
power	-2576
▁rather	-2577
▁arri	-2578
▁student	-2579
dece	-2580
▁leading	-2581
▁image	-2582
▁seems	-2583
▁teac	-2584
▁loss	-2585
bal	-2586
▁providing	-2587
▁quickly	-2588
rie	-2589
6,	-2590
▁estab	-2591
▁regard	-2592
▁usually	-2593
▁credit	-2594
hot	-2595
iddle	-2596
▁comment	-2597
▁rate	-2598
▁safety	-2599
▁touch	-2600
▁stat	-2601
▁collection	-2602
techn	-2603
december	-2604
aining	-2605
opping	-2606
▁ideas	-2607
▁draw	-2608
▁deep	-2609
▁choice	-2610
8,	-2611
under	-2612
▁excell	-2613
calif	-2614
great	-2615
▁network	-2616
cret	-2617
▁apply	-2618
cup	-2619
▁national	-2620
▁higher	-2621
bert	-2622
▁bal	-2623
imin	-2624
ga	-2625
ivery	-2626
hel	-2627
▁easily	-2628
ondon	-2629
▁bud	-2630
▁sil	-2631
▁encour	-2632
empt	-2633
green	-2634
▁prior	-2635
▁£	-2636
▁movie	-2637
▁location	-2638
▁moment	-2639
unt	-2640
eds	-2641
▁integr	-2642
▁reported	-2643
▁marketing	-2644
▁cell	-2645
7.	-2646
mm	-2647
▁decision	-2648
fam	-2649
roy	-2650
▁decided	-2651
▁prevent	-2652
mag	-2653
even	-2654
9,	-2655
▁court	-2656
▁released	-2657
▁dom	-2658
step	-2659
▁base	-2660
▁depend	-2661
▁commit	-2662
▁wood	-2663
▁ill	-2664
sl	-2665
london	-2666
web	-2667
ached	-2668
▁digital	-2669
▁21	-2670
▁sn	-2671
thanks	-2672
▁mass	-2673
▁display	-2674
pped	-2675
▁benefits	-2676
aste	-2677
white	-2678
▁introdu	-2679
english	-2680
▁file	-2681
▁feature	-2682
oring	-2683
▁exact	-2684
call	-2685
▁rad	-2686
bec	-2687
▁cannot	-2688
idents	-2689
▁daily	-2690
reng	-2691
▁cy	-2692
lex	-2693
▁parents	-2694
▁cause	-2695
▁piece	-2696
oes	-2697
rich	-2698
gen	-2699
▁4.	-2700
east	-2701
ban	-2702
iff	-2703
▁heav	-2704
sur	-2705
▁effic	-2706
▁sche	-2707
thern	-2708
▁announced	-2709
▁partners	-2710
change	-2711
arden	-2712
▁user	-2713
▁respect	-2714
▁campaign	-2715
▁lost	-2716
▁expected	-2717
using	-2718
▁center	-2719
ospital	-2720
▁involved	-2721
▁modern	-2722
mary	-2723
today	-2724
ructure	-2725
▁smo	-2726
▁investig	-2727
college	-2728
wide	-2729
sch	-2730
▁hor	-2731
works	-2732
amed	-2733
ederal	-2734
iction	-2735
order	-2736
find	-2737
▁maintain	-2738
zz	-2739
▁langu	-2740
▁standard	-2741
▁vict	-2742
super	-2743
▁ut	-2744
though	-2745
▁expert	-2746
▁dest	-2747
▁green	-2748
▁bag	-2749
▁save	-2750
bscri	-2751
▁related	-2752
ams	-2753
▁saw	-2754
ruary	-2755
ead	-2756
istic	-2757
▁mobile	-2758
▁note	-2759
▁woman	-2760
12	-2761
february	-2762
afr	-2763
▁ability	-2764
▁immed	-2765
▁floor	-2766
jack	-2767
▁boy	-2768
aves	-2769
mac	-2770
▁patients	-2771
:30	-2772
once	-2773
▁option	-2774
▁ded	-2775
▁enter	-2776
3,	-2777
▁restaur	-2778
ivity	-2779
david	-2780
roups	-2781
▁goes	-2782
▁2015	-2783
▁parts	-2784
▁computer	-2785
night	-2786
di	-2787
▁squ	-2788
▁word	-2789
child	-2790
since	-2791
▁http	-2792
ester	-2793
▁code	-2794
services	-2795
iring	-2796
▁stra	-2797
▁af	-2798
70	-2799
acking	-2800
▁inj	-2801
▁helps	-2802
bing	-2803
▁dress	-2804
▁roll	-2805
▁global	-2806
californ	-2807
▁innov	-2808
reme	-2809
▁costs	-2810
▁mother	-2811
▁target	-2812
▁equipment	-2813
▁huge	-2814
men	-2815
open	-2816
▁bi	-2817
cap	-2818
▁weight	-2819
make	-2820
▁rights	-2821
icks	-2822
▁serious	-2823
▁tools	-2824
▁tick	-2825
▁door	-2826
▁ones	-2827
big	-2828
enge	-2829
▁myself	-2830
force	-2831
▁gen	-2832
pose	-2833
▁ep	-2834
▁complet	-2835
develop	-2836
christmas	-2837
▁agre	-2838
illing	-2839
da	-2840
ky	-2841
▁solutions	-2842
brit	-2843
▁feed	-2844
▁gives	-2845
▁legal	-2846
▁sens	-2847
mem	-2848
▁surpr	-2849
rown	-2850
▁arch	-2851
dem	-2852
cure	-2853
body	-2854
program	-2855
asons	-2856
▁request	-2857
▁attention	-2858
▁attack	-2859
▁conditions	-2860
point	-2861
inary	-2862
▁sus	-2863
▁insurance	-2864
15	-2865
▁giving	-2866
iation	-2867
▁admin	-2868
uel	-2869
▁deliver	-2870
▁interested	-2871
california	-2872
▁dry	-2873
▁earn	-2874
▁photo	-2875
▁levels	-2876
▁policy	-2877
▁planning	-2878
dri	-2879
erc	-2880
according	-2881
have	-2882
fil	-2883
▁hands	-2884
▁trust	-2885
iding	-2886
▁hear	-2887
ault	-2888
acing	-2889
▁approach	-2890
▁resources	-2891
vol	-2892
▁appe	-2893
cu	-2894
twitter	-2895
ension	-2896
▁award	-2897
▁highly	-2898
▁businesses	-2899
bum	-2900
ibrary	-2901
pay	-2902
atives	-2903
▁solution	-2904
who	-2905
akers	-2906
▁wed	-2907
iant	-2908
attle	-2909
www	-2910
▁qual	-2911
▁prim	-2912
▁sett	-2913
zy	-2914
vey	-2915
▁condition	-2916
erous	-2917
▁sold	-2918
▁remember	-2919
▁sale	-2920
▁starting	-2921
izes	-2922
ida	-2923
▁warm	-2924
ben	-2925
▁gets	-2926
▁fine	-2927
ned	-2928
ysis	-2929
▁source	-2930
▁instead	-2931
▁lower	-2932
each	-2933
__	-2934
▁materials	-2935
▁write	-2936
▁reach	-2937
ashion	-2938
irit	-2939
▁attract	-2940
india	-2941
ength	-2942
▁multiple	-2943
▁published	-2944
▁bur	-2945
apan	-2946
hall	-2947
▁rout	-2948
▁themselves	-2949
▁sense	-2950
▁images	-2951
▁streng	-2952
▁star	-2953
▁cases	-2954
▁eye	-2955
show	-2956
▁upon	-2957
▁played	-2958
▁express	-2959
▁neg	-2960
▁join	-2961
system	-2962
▁effective	-2963
▁firm	-2964
atory	-2965
▁mid	-2966
arant	-2967
vin	-2968
hand	-2969
build	-2970
▁plant	-2971
▁types	-2972
plement	-2973
▁president	-2974
▁organization	-2975
vision	-2976
phil	-2977
▁consult	-2978
anch	-2979
▁heat	-2980
▁positive	-2981
washing	-2982
erve	-2983
bay	-2984
▁opp	-2985
orge	-2986
▁written	-2987
7,	-2988
ography	-2989
tex	-2990
▁cat	-2991
▁depart	-2992
▁lif	-2993
▁lic	-2994
▁interesting	-2995
▁stock	-2996
▁healthy	-2997
▁dise	-2998
hist	-2999
▁average	-3000
▁item	-3001
aches	-3002
▁picture	-3003
▁slow	-3004
▁fight	-3005
plan	-3006
tri	-3007
▁interview	-3008
office	-3009
educ	-3010
▁camer	-3011
enty	-3012
isl	-3013
▁countries	-3014
▁answer	-3015
▁message	-3016
ael	-3017
▁subject	-3018
rock	-3019
▁gift	-3020
gre	-3021
▁employees	-3022
▁spend	-3023
▁sou	-3024
▁prem	-3025
▁opportunities	-3026
▁wal	-3027
ocol	-3028
love	-3029
▁pers	-3030
hi	-3031
▁dream	-3032
▁trip	-3033
▁viol	-3034
▁sites	-3035
▁directly	-3036
▁copy	-3037
▁completely	-3038
▁ur	-3039
▁document	-3040
ruit	-3041
▁began	-3042
wom	-3043
▁hour	-3044
▁capt	-3045
gold	-3046
wa	-3047
thank	-3048
▁families	-3049
▁achieve	-3050
produ	-3051
▁@	-3052
▁commercial	-3053
▁player	-3054
▁fab	-3055
▁essential	-3056
mart	-3057
▁necessary	-3058
ipped	-3059
▁fans	-3060
iable	-3061
....	-3062
ffee	-3063
uses	-3064
comes	-3065
▁fully	-3066
▁prices	-3067
▁2016	-3068
▁1,	-3069
▁fix	-3070
▁groups	-3071
ffects	-3072
angel	-3073
rought	-3074
▁promot	-3075
tee	-3076
arts	-3077
-4	-3078
▁adult	-3079
▁pull	-3080
▁stories	-3081
▁excellent	-3082
▁60	-3083
▁(2	-3084
▁glass	-3085
itute	-3086
china	-3087
▁reve	-3088
japan	-3089
paul	-3090
▁band	-3091
review	-3092
itely	-3093
olf	-3094
company	-3095
▁offe	-3096
▁successful	-3097
▁creating	-3098
det	-3099
lar	-3100
▁stuff	-3101
fast	-3102
▁dru	-3103
▁growing	-3104
▁comments	-3105
lt	-3106
▁gar	-3107
▁traditional	-3108
▁tele	-3109
long	-3110
▁sen	-3111
▁aim	-3112
▁www	-3113
itation	-3114
▁except	-3115
▁stru	-3116
washington	-3117
apple	-3118
▁2018	-3119
▁div	-3120
▁cert	-3121
▁reports	-3122
ls	-3123
▁itself	-3124
▁separ	-3125
dan	-3126
mil	-3127
▁affect	-3128
▁goals	-3129
erved	-3130
iced	-3131
ancy	-3132
sun	-3133
▁gold	-3134
▁baby	-3135
▁device	-3136
▁led	-3137
ties	-3138
▁mount	-3139
▁broad	-3140
two	-3141
▁2011	-3142
▁shoot	-3143
▁propos	-3144
▁vehicle	-3145
▁neigh	-3146
▁execut	-3147
▁dark	-3148
▁2020	-3149
▁birth	-3150
▁defe	-3151
people	-3152
▁ir	-3153
▁dead	-3154
onse	-3155
bet	-3156
▁suit	-3157
▁wrong	-3158
fire	-3159
pan	-3160
dy	-3161
▁extreme	-3162
person	-3163
▁fair	-3164
▁applications	-3165
boo	-3166
▁terms	-3167
▁saying	-3168
vest	-3169
▁attempt	-3170
ube	-3171
▁hop	-3172
tom	-3173
▁cross	-3174
▁imm	-3175
▁tur	-3176
vide	-3177
director	-3178
▁thinking	-3179
mail	-3180
canada	-3181
▁wasn	-3182
▁pictures	-3183
▁wait	-3184
ado	-3185
▁22	-3186
take	-3187
▁speed	-3188
▁teams	-3189
live	-3190
opt	-3191
sol	-3192
▁section	-3193
iny	-3194
▁bath	-3195
hest	-3196
cert	-3197
▁implement	-3198
aughter	-3199
▁serve	-3200
istry	-3201
▁budget	-3202
▁profession	-3203
▁offering	-3204
▁mention	-3205
▁distribut	-3206
▁wish	-3207
▁blood	-3208
ores	-3209
▁aware	-3210
▁advice	-3211
▁obs	-3212
▁organiz	-3213
yond	-3214
▁director	-3215
association	-3216
▁sweet	-3217
court	-3218
ils	-3219
pite	-3220
club	-3221
▁impress	-3222
▁limited	-3223
▁gave	-3224
”.	-3225
▁occur	-3226
▁mark	-3227
▁carry	-3228
aries	-3229
door	-3230
▁apart	-3231
▁ble	-3232
▁correct	-3233
ctions	-3234
contact	-3235
ological	-3236
corpor	-3237
▁po	-3238
▁delivery	-3239
flor	-3240
▁places	-3241
▁dog	-3242
main	-3243
▁smart	-3244
camp	-3245
▁college	-3246
chan	-3247
▁developed	-3248
▁statement	-3249
▁enh	-3250
nds	-3251
pc	-3252
sum	-3253
indian	-3254
rob	-3255
▁individuals	-3256
arc	-3257
▁avoid	-3258
note	-3259
▁son	-3260
pack	-3261
▁dro	-3262
rench	-3263
▁eat	-3264
aling	-3265
▁requirements	-3266
bc	-3267
▁moving	-3268
▁nation	-3269
ago	-3270
▁progress	-3271
▁construction	-3272
▁ing	-3273
▁spent	-3274
▁became	-3275
▁complex	-3276
▁title	-3277
uth	-3278
▁schools	-3279
▁situation	-3280
▁nut	-3281
bra	-3282
ibly	-3283
ox	-3284
rote	-3285
▁sometimes	-3286
ady	-3287
ads	-3288
ration	-3289
ceed	-3290
aught	-3291
▁shop	-3292
inner	-3293
▁feet	-3294
▁wants	-3295
▁5.	-3296
▁vot	-3297
▁kitchen	-3298
▁pattern	-3299
▁wonderful	-3300
▁shot	-3301
haps	-3302
hop	-3303
▁cas	-3304
umb	-3305
▁physical	-3306
windows	-3307
▁sleep	-3308
▁feeling	-3309
sign	-3310
▁stress	-3311
▁advant	-3312
unte	-3313
▁club	-3314
fall	-3315
▁rent	-3316
online	-3317
only	-3318
▁jud	-3319
wise	-3320
cul	-3321
▁heard	-3322
ancing	-3323
▁path	-3324
made	-3325
▁har	-3326
william	-3327
although	-3328
75	-3329
▁pet	-3330
idered	-3331
▁consist	-3332
▁finish	-3333
▁sty	-3334
▁album	-3335
▁towards	-3336
council	-3337
ses	-3338
▁sort	-3339
▁kn	-3340
fa	-3341
▁owners	-3342
-5	-3343
dule	-3344
micro	-3345
▁conduct	-3346
▁hotel	-3347
▁convers	-3348
tor	-3349
▁loved	-3350
▁annual	-3351
texas	-3352
research	-3353
▁language	-3354
iber	-3355
▁bank	-3356
▁strateg	-3357
ka	-3358
▁mic	-3359
▁billion	-3360
▁spot	-3361
itary	-3362
rang	-3363
▁felt	-3364
ocr	-3365
▁quarter	-3366
▁finally	-3367
▁block	-3368
michael	-3369
card	-3370
▁region	-3371
▁hous	-3372
▁race	-3373
▁inform	-3374
keep	-3375
▁bow	-3376
▁ten	-3377
aks	-3378
run	-3379
▁grand	-3380
▁aff	-3381
cell	-3382
▁respond	-3383
▁temper	-3384
▁stage	-3385
▁pow	-3386
▁eyes	-3387
custom	-3388
▁ver	-3389
▁nature	-3390
▁helping	-3391
bank	-3392
▁straight	-3393
▁weather	-3394
elect	-3395
▁wear	-3396
internet	-3397
▁exerc	-3398
▁max	-3399
▁partner	-3400
▁investment	-3401
▁tried	-3402
test	-3403
general	-3404
▁categ	-3405
ker	-3406
▁brought	-3407
lead	-3408
▁concept	-3409
▁overall	-3410
".	-3411
▁guide	-3412
▁ge	-3413
▁nearly	-3414
hum	-3415
▁client	-3416
craft	-3417
james	-3418
mine	-3419
▁wife	-3420
australia	-3421
sil	-3422
food	-3423
iment	-3424
rad	-3425
▁charge	-3426
color	-3427
▁independ	-3428
fun	-3429
▁largest	-3430
ares	-3431
▁…	-3432
mot	-3433
aint	-3434
▁wedding	-3435
sub	-3436
van	-3437
▁pieces	-3438
▁term	-3439
▁cold	-3440
estival	-3441
week	-3442
▁collabor	-3443
▁wrote	-3444
mitted	-3445
▁activity	-3446
▁gas	-3447
▁sports	-3448
▁23	-3449
▁double	-3450
▁definitely	-3451
roud	-3452
▁demand	-3453
▁appoint	-3454
ta	-3455
▁198	-3456
▁benefit	-3457
asy	-3458
inte	-3459
russ	-3460
rant	-3461
▁homes	-3462
▁advert	-3463
▁offered	-3464
iately	-3465
rences	-3466
▁bottom	-3467
▁reduce	-3468
▁uses	-3469
oon	-3470
▁analy	-3471
▁apprec	-3472
▁acqu	-3473
usa	-3474
▁internet	-3475
management	-3476
▁blue	-3477
▁altern	-3478
▁response	-3479
▁imag	-3480
aled	-3481
look	-3482
start	-3483
sou	-3484
follow	-3485
▁difference	-3486
▁ord	-3487
lu	-3488
▁creative	-3489
▁pred	-3490
▁ahead	-3491
because	-3492
▁turned	-3493
urt	-3494
european	-3495
special	-3496
wall	-3497
▁thous	-3498
▁influ	-3499
vant	-3500
▁candid	-3501
▁miles	-3502
▁considered	-3503
ml	-3504
▁devices	-3505
oves	-3506
▁seven	-3507
▁ru	-3508
▁active	-3509
▁served	-3510
▁exactly	-3511
▁retail	-3512
▁medic	-3513
cks	-3514
▁beginning	-3515
45	-3516
▁earlier	-3517
olute	-3518
ican	-3519
iance	-3520
jun	-3521
watch	-3522
ustain	-3523
oke	-3524
log	-3525
▁challenge	-3526
during	-3527
mount	-3528
sey	-3529
cs	-3530
▁transport	-3531
game	-3532
▁entertain	-3533
dig	-3534
4,	-3535
information	-3536
▁lik	-3537
▁histor	-3538
▁finished	-3539
▁dating	-3540
▁belie	-3541
sam	-3542
bow	-3543
▁doll	-3544
community	-3545
mad	-3546
▁flav	-3547
ios	-3548
▁surround	-3549
▁paid	-3550
icious	-3551
▁understanding	-3552
16	-3553
bell	-3554
sell	-3555
▁lots	-3556
▁extend	-3557
▁regul	-3558
:||	-3559
▁sem	-3560
ategy	-3561
lying	-3562
lee	-3563
oms	-3564
print	-3565
▁2019	-3566
which	-3567
▁cash	-3568
opped	-3569
▁guarant	-3570
▁farm	-3571
▁maybe	-3572
▁rock	-3573
ounds	-3574
▁posted	-3575
antly	-3576
90	-3577
icking	-3578
▁easier	-3579
team	-3580
blue	-3581
▁decl	-3582
▁experienced	-3583
church	-3584
iles	-3585
▁0.	-3586
▁political	-3587
family	-3588
lake	-3589
music	-3590
los	-3591
▁states	-3592
active	-3593
▁pages	-3594
island	-3595
▁culture	-3596
wr	-3597
▁hus	-3598
▁machine	-3599
jes	-3600
exper	-3601
▁eight	-3602
▁exhib	-3603
za	-3604
▁truly	-3605
cel	-3606
▁girls	-3607
13	-3608
ampions	-3609
▁fat	-3610
quest	-3611
▁emot	-3612
▁rates	-3613
▁analysis	-3614
▁immediately	-3615
▁assess	-3616
rd	-3617
pare	-3618
icing	-3619
▁tips	-3620
boy	-3621
onstr	-3622
▁comfortable	-3623
fit	-3624
▁wind	-3625
cong	-3626
▁pen	-3627
▁je	-3628
mont	-3629
▁expand	-3630
ocks	-3631
▁satis	-3632
▁storage	-3633
education	-3634
▁pool	-3635
▁decor	-3636
▁thank	-3637
▁named	-3638
▁pressure	-3639
▁afford	-3640
▁damage	-3641
▁videos	-3642
hill	-3643
never	-3644
▁brow	-3645
▁$2	-3646
▁contain	-3647
ails	-3648
cd	-3649
▁completed	-3650
mel	-3651
▁economic	-3652
orial	-3653
▁degree	-3654
-8	-3655
▁numbers	-3656
▁adjust	-3657
isions	-3658
aud	-3659
▁remain	-3660
cam	-3661
page	-3662
▁wild	-3663
▁mis	-3664
town	-3665
▁father	-3666
▁gradu	-3667
▁corpor	-3668
▁cards	-3669
hens	-3670
league	-3671
undred	-3672
text	-3673
chic	-3674
pass	-3675
▁indic	-3676
oper	-3677
▁mer	-3678
roid	-3679
florida	-3680
icken	-3681
▁launch	-3682
full	-3683
han	-3684
▁behav	-3685
▁ingred	-3686
agn	-3687
equ	-3688
▁purpose	-3689
▁trade	-3690
▁opening	-3691
▁existing	-3692
▁accur	-3693
▁helped	-3694
▁beyond	-3695
▁highest	-3696
▁fashion	-3697
▁camera	-3698
▁craft	-3699
ivil	-3700
▁obtain	-3701
▁subst	-3702
ara	-3703
▁prec	-3704
organ	-3705
through	-3706
▁responsible	-3707
▁spread	-3708
illa	-3709
atever	-3710
▁excited	-3711
plus	-3712
▁coffee	-3713
front	-3714
▁disease	-3715
profess	-3716
othing	-3717
▁cancer	-3718
▁plus	-3719
french	-3720
▁ban	-3721
▁estate	-3722
oving	-3723
▁proud	-3724
▁welcome	-3725
▁fant	-3726
▁furn	-3727
rooms	-3728
▁jobs	-3729
jer	-3730
▁proced	-3731
offic	-3732
▁lines	-3733
download	-3734
▁train	-3735
▁park	-3736
lou	-3737
▁setting	-3738
▁reviews	-3739
priate	-3740
media	-3741
police	-3742
▁threat	-3743
const	-3744
cat	-3745
▁button	-3746
rapy	-3747
▁length	-3748
▁holiday	-3749
▁frame	-3750
▁driving	-3751
cher	-3752
clusive	-3753
▁passion	-3754
weight	-3755
▁thanks	-3756
▁increased	-3757
anta	-3758
▁knew	-3759
arily	-3760
jour	-3761
contin	-3762
grand	-3763
▁object	-3764
▁middle	-3765
vict	-3766
▁prefer	-3767
▁fem	-3768
▁journey	-3769
oil	-3770
▁files	-3771
▁shopping	-3772
author	-3773
republic	-3774
▁conference	-3775
ences	-3776
▁allowed	-3777
iger	-3778
▁relax	-3779
▁normal	-3780
▁increasing	-3781
▁strugg	-3782
▁selection	-3783
aded	-3784
▁initial	-3785
fre	-3786
▁traffic	-3787
▁28	-3788
▁husband	-3789
writ	-3790
▁frequ	-3791
fund	-3792
▁update	-3793
ronic	-3794
▁certainly	-3795
ologies	-3796
▁batter	-3797
19	-3798
▁conne	-3799
science	-3800
▁wine	-3801
▁supply	-3802
ota	-3803
pd	-3804
lord	-3805
▁effects	-3806
▁dedicated	-3807
pects	-3808
central	-3809
imal	-3810
▁subscri	-3811
▁clin	-3812
▁surv	-3813
gn	-3814
anned	-3815
500	-3816
▁incred	-3817
▁himself	-3818
istics	-3819
standing	-3820
thom	-3821
▁cream	-3822
ously	-3823
▁efforts	-3824
▁links	-3825
▁born	-3826
gal	-3827
river	-3828
▁mission	-3829
lished	-3830
▁steps	-3831
▁evening	-3832
engine	-3833
▁background	-3834
thes	-3835
▁bill	-3836
▁secure	-3837
▁spirit	-3838
▁refer	-3839
▁demonstr	-3840
oph	-3841
▁sugar	-3842
ald	-3843
▁protection	-3844
▁highlight	-3845
▁changed	-3846
▁looked	-3847
▁owner	-3848
going	-3849
14	-3850
▁cru	-3851
flow	-3852
▁occas	-3853
lied	-3854
5,	-3855
▁haven	-3856
▁paint	-3857
▁session	-3858
▁manufacture	-3859
social	-3860
▁measure	-3861
▁©	-3862
ona	-3863
▁80	-3864
working	-3865
compl	-3866
nded	-3867
▁fan	-3868
aming	-3869
▁cast	-3870
lement	-3871
porary	-3872
▁egg	-3873
connect	-3874
▁instruct	-3875
pared	-3876
▁spring	-3877
▁produce	-3878
whether	-3879
smith	-3880
18	-3881
support	-3882
tre	-3883
case	-3884
▁vac	-3885
mill	-3886
▁powerful	-3887
unk	-3888
oe	-3889
term	-3890
▁guys	-3891
▁artist	-3892
▁=	-3893
development	-3894
▁challenges	-3895
fortun	-3896
product	-3897
iling	-3898
▁fill	-3899
▁basic	-3900
▁transfer	-3901
itect	-3902
▁meaning	-3903
▁rese	-3904
british	-3905
▁guests	-3906
amin	-3907
iture	-3908
▁science	-3909
▁stream	-3910
-6	-3911
xim	-3912
▁schedule	-3913
▁26	-3914
fol	-3915
▁particularly	-3916
hu	-3917
▁colors	-3918
pping	-3919
▁moved	-3920
▁letter	-3921
▁aren	-3922
▁patient	-3923
▁payment	-3924
▁100%	-3925
▁drop	-3926
azine	-3927
▁talking	-3928
ico	-3929
annel	-3930
▁alone	-3931
▁volunte	-3932
▁winter	-3933
dec	-3934
lor	-3935
▁onto	-3936
):	-3937
▁slight	-3938
▁rules	-3939
children	-3940
tenance	-3941
▁opin	-3942
iques	-3943
▁shared	-3944
▁electric	-3945
▁federal	-3946
▁strength	-3947
▁adding	-3948
▁taste	-3949
ergency	-3950
iar	-3951
▁liter	-3952
▁couldn	-3953
▁biggest	-3954
div	-3955
▁runs	-3956
learn	-3957
icon	-3958
acity	-3959
▁organizations	-3960
uled	-3961
▁multi	-3962
▁unit	-3963
▁conven	-3964
sequ	-3965
itiz	-3966
publ	-3967
▁basis	-3968
▁peace	-3969
umber	-3970
▁leader	-3971
▁whose	-3972
anging	-3973
▁models	-3974
0.	-3975
rief	-3976
ocolate	-3977
▁2009	-3978
rial	-3979
istered	-3980
master	-3981
apter	-3982
brown	-3983
▁absolute	-3984
copy	-3985
▁extremely	-3986
▁views	-3987
▁shown	-3988
va	-3989
help	-3990
▁shipping	-3991
▁manager	-3992
▁residents	-3993
▁communities	-3994
ustr	-3995
▁church	-3996
▁garden	-3997
▁seeing	-3998
▁reasons	-3999
project	-4000
▁ideal	-4001
buy	-4002
ston	-4003
▁capital	-4004
▁surface	-4005
▁competition	-4006
▁sched	-4007
bul	-4008
umn	-4009
resp	-4010
▁compon	-4011
▁hundred	-4012
▁heavy	-4013
tur	-4014
ws	-4015
institute	-4016
fi	-4017
▁und	-4018
district	-4019
alex	-4020
▁trou	-4021
▁daughter	-4022
▁regarding	-4023
quality	-4024
next	-4025
▁coach	-4026
ened	-4027
▁brother	-4028
▁window	-4029
▁guid	-4030
another	-4031
▁gone	-4032
▁characters	-4033
lies	-4034
▁notice	-4035
somet	-4036
▁voice	-4037
▁ton	-4038
rian	-4039
▁followed	-4040
oices	-4041
▁advantage	-4042
▁beauty	-4043
▁cry	-4044
▁determin	-4045
▁scient	-4046
ari	-4047
foot	-4048
▁manage	-4049
▁graph	-4050
▁dy	-4051
▁strategy	-4052
▁snow	-4053
iverse	-4054
bes	-4055
▁standards	-4056
▁classic	-4057
17	-4058
aven	-4059
▁fa	-4060
▁pair	-4061
▁smooth	-4062
azon	-4063
cc	-4064
uce	-4065
ris	-4066
▁happened	-4067
aly	-4068
▁identify	-4069
▁experts	-4070
asure	-4071
▁experiences	-4072
▁breat	-4073
includ	-4074
▁bul	-4075
tit	-4076
max	-4077
before	-4078
▁lack	-4079
bour	-4080
▁mail	-4081
mes	-4082
zer	-4083
both	-4084
▁names	-4085
▁academ	-4086
▁luck	-4087
encies	-4088
▁hospital	-4089
▁virt	-4090
▁trail	-4091
bill	-4092
▁covered	-4093
▁efficient	-4094
▁waiting	-4095
▁27	-4096
▁professionals	-4097
posted	-4098
▁shape	-4099
mi	-4100
▁although	-4101
elling	-4102
commod	-4103
▁90	-4104
▁recipe	-4105
times	-4106
mass	-4107
ette	-4108
▁talent	-4109
security	-4110
▁flex	-4111
▁workers	-4112
▁finding	-4113
apers	-4114
▁dang	-4115
▁senior	-4116
asc	-4117
▁passed	-4118
▁exciting	-4119
gers	-4120
35	-4121
foundation	-4122
▁cab	-4123
orm	-4124
vi	-4125
inese	-4126
▁audience	-4127
▁scene	-4128
▁institut	-4129
▁guy	-4130
england	-4131
▁driver	-4132
inger	-4133
▁score	-4134
ht	-4135
▁sand	-4136
▁remind	-4137
orney	-4138
osing	-4139
▁master	-4140
hd	-4141
apt	-4142
▁beg	-4143
▁circ	-4144
jesus	-4145
▁larger	-4146
▁officials	-4147
commission	-4148
mex	-4149
▁ice	-4150
ya	-4151
ums	-4152
grade	-4153
union	-4154
video	-4155
tour	-4156
tot	-4157
▁posts	-4158
▁fear	-4159
bles	-4160
▁technical	-4161
gas	-4162
acement	-4163
▁district	-4164
▁compared	-4165
▁associated	-4166
▁eval	-4167
▁classes	-4168
their	-4169
▁butter	-4170
▁swe	-4171
site	-4172
data	-4173
▁laun	-4174
▁continues	-4175
▁au	-4176
▁friendly	-4177
▁cars	-4178
▁package	-4179
▁announce	-4180
▁wat	-4181
mical	-4182
beach	-4183
dou	-4184
▁keeping	-4185
atl	-4186
▁restaurant	-4187
cm	-4188
women	-4189
▁greater	-4190
rick	-4191
▁closed	-4192
▁ran	-4193
▁den	-4194
▁rich	-4195
▁minute	-4196
▁solid	-4197
venue	-4198
▁calls	-4199
▁sustain	-4200
▁critical	-4201
noon	-4202
▁listed	-4203
▁forget	-4204
▁advent	-4205
▁station	-4206
gery	-4207
▁developing	-4208
scott	-4209
▁facilities	-4210
atures	-4211
spring	-4212
ipes	-4213
▁epis	-4214
christian	-4215
▁tim	-4216
brand	-4217
▁continued	-4218
▁ingredients	-4219
▁older	-4220
illage	-4221
▁novel	-4222
berg	-4223
▁gun	-4224
▁motor	-4225
▁rooms	-4226
▁ju	-4227
enter	-4228
▁plenty	-4229
bas	-4230
obama	-4231
▁handle	-4232
▁artists	-4233
▁placed	-4234
▁fish	-4235
tech	-4236
fair	-4237
▁remove	-4238
▁explore	-4239
stone	-4240
▁medium	-4241
▁monitor	-4242
ordin	-4243
mu	-4244
ula	-4245
rey	-4246
odes	-4247
party	-4248
chicago	-4249
▁6.	-4250
▁studies	-4251
▁bright	-4252
franc	-4253
▁disapp	-4254
▁1/2	-4255
22	-4256
store	-4257
▁reflect	-4258
▁testing	-4259
agram	-4260
▁connection	-4261
▁appropriate	-4262
▁established	-4263
join	-4264
jud	-4265
▁income	-4266
▁figure	-4267
▁useful	-4268
▁arrest	-4269
being	-4270
itar	-4271
▁football	-4272
▁winning	-4273
antic	-4274
ags	-4275
▁produced	-4276
itors	-4277
▁2008	-4278
▁knows	-4279
commit	-4280
atab	-4281
▁tree	-4282
▁thousands	-4283
gi	-4284
▁learned	-4285
▁beat	-4286
▁salt	-4287
blog	-4288
chinese	-4289
carol	-4290
▁rob	-4291
related	-4292
origin	-4293
▁died	-4294
rael	-4295
▁force	-4296
microsoft	-4297
▁repair	-4298
amazon	-4299
actions	-4300
▁bra	-4301
▁gra	-4302
▁jump	-4303
access	-4304
▁kept	-4305
girl	-4306
ements	-4307
igation	-4308
▁requires	-4309
haw	-4310
▁economy	-4311
lines	-4312
season	-4313
▁military	-4314
hab	-4315
▁evidence	-4316
▁operations	-4317
▁presented	-4318
▁fol	-4319
▁teaching	-4320
▁street	-4321
▁ship	-4322
award	-4323
atically	-4324
books	-4325
oma	-4326
lands	-4327
▁cra	-4328
▁primary	-4329
▁sym	-4330
allery	-4331
type	-4332
happ	-4333
▁pm	-4334
▁serving	-4335
▁sharing	-4336
link	-4337
zen	-4338
▁status	-4339
israel	-4340
▁opened	-4341
▁70	-4342
▁communication	-4343
▁doctor	-4344
lyn	-4345
report	-4346
ech	-4347
▁speak	-4348
▁selected	-4349
level	-4350
▁contains	-4351
▁brings	-4352
▁stick	-4353
▁structure	-4354
▁discover	-4355
kin	-4356
fortunately	-4357
▁discount	-4358
▁shall	-4359
▁starts	-4360
oom	-4361
irection	-4362
▁princ	-4363
cost	-4364
▁throw	-4365
rome	-4366
ceo	-4367
prote	-4368
▁updated	-4369
code	-4370
▁initi	-4371
▁neighbor	-4372
▁injury	-4373
size	-4374
▁util	-4375
▁sport	-4376
valley	-4377
▁dinner	-4378
▁vision	-4379
▁prepared	-4380
mid	-4381
vention	-4382
▁catch	-4383
▁advance	-4384
▁ul	-4385
western	-4386
▁veget	-4387
▁resist	-4388
enses	-4389
▁watching	-4390
idential	-4391
wis	-4392
▁scen	-4393
▁leaves	-4394
pective	-4395
▁guess	-4396
▁prepar	-4397
▁victim	-4398
▁2,	-4399
sand	-4400
uries	-4401
▁beach	-4402
▁valu	-4403
medical	-4404
academ	-4405
ctors	-4406
▁department	-4407
sea	-4408
looking	-4409
▁methods	-4410
nic	-4411
hard	-4412
▁remains	-4413
▁poor	-4414
bling	-4415
iency	-4416
▁agency	-4417
-19	-4418
aked	-4419
▁balance	-4420
/4	-4421
▁buying	-4422
▁pray	-4423
▁suff	-4424
pac	-4425
▁gain	-4426
edy	-4427
ups	-4428
government	-4429
▁funds	-4430
price	-4431
olar	-4432
▁properties	-4433
burg	-4434
▁cleaning	-4435
▁famous	-4436
lastname	-4437
berry	-4438
ading	-4439
series	-4440
▁micro	-4441
itude	-4442
▁designs	-4443
got	-4444
▁mo	-4445
ixt	-4446
atively	-4447
▁psy	-4448
▁movement	-4449
agon	-4450
-7	-4451
invest	-4452
africa	-4453
ifts	-4454
▁secret	-4455
▁flat	-4456
kit	-4457
pad	-4458
wer	-4459
muse	-4460
android	-4461
rupt	-4462
▁entry	-4463
known	-4464
okes	-4465
▁crow	-4466
▁metal	-4467
email	-4468
▁bought	-4469
ooper	-4470
ograp	-4471
abilities	-4472
▁journal	-4473
ec	-4474
claim	-4475
umin	-4476
wing	-4477
▁leaving	-4478
▁showing	-4479
▁map	-4480
▁plants	-4481
sn	-4482
▁sector	-4483
▁spending	-4484
tic	-4485
mond	-4486
pot	-4487
▁facility	-4488
riage	-4489
walk	-4490
▁fabric	-4491
▁becoming	-4492
▁maintenance	-4493
acks	-4494
32	-4495
▁drug	-4496
cles	-4497
▁stores	-4498
essions	-4499
▁spons	-4500
ander	-4501
▁rain	-4502
technology	-4503
employ	-4504
▁brain	-4505
”,	-4506
▁reality	-4507
▁happens	-4508
ishes	-4509
▁alleg	-4510
ellig	-4511
ximately	-4512
▁mechan	-4513
▁fee	-4514
▁determine	-4515
▁https	-4516
▁forms	-4517
jul	-4518
osure	-4519
chris	-4520
▁vote	-4521
95	-4522
creat	-4523
outs	-4524
▁197	-4525
▁independent	-4526
▁advanced	-4527
nut	-4528
ira	-4529
hus	-4530
cov	-4531
george	-4532
inn	-4533
▁cris	-4534
▁wouldn	-4535
▁loan	-4536
jim	-4537
▁visual	-4538
▁signed	-4539
▁perhaps	-4540
chief	-4541
vere	-4542
▁leadership	-4543
▁ride	-4544
▁committed	-4545
▁rare	-4546
▁meant	-4547
ped	-4548
▁exercise	-4549
▁steel	-4550
dered	-4551
▁chair	-4552
journal	-4553
days	-4554
second	-4555
▁yester	-4556
▁relig	-4557
ampionship	-4558
65	-4559
estic	-4560
:0	-4561
gra	-4562
ci	-4563
▁animals	-4564
admin	-4565
▁anti	-4566
▁cheese	-4567
▁awes	-4568
▁compre	-4569
dev	-4570
wil	-4571
▁changing	-4572
▁sources	-4573
▁numerous	-4574
▁tables	-4575
▁focused	-4576
current	-4577
▁mist	-4578
▁accommod	-4579
iers	-4580
▁faith	-4581
igan	-4582
**	-4583
iences	-4584
▁diagn	-4585
▁lux	-4586
▁busy	-4587
▁visitors	-4588
▁elements	-4589
pur	-4590
▁mill	-4591
frank	-4592
▁partnership	-4593
▁menu	-4594
▁whatever	-4595
▁markets	-4596
▁locations	-4597
▁rev	-4598
▁grant	-4599
▁corner	-4600
▁listen	-4601
▁actual	-4602
adv	-4603
▁roof	-4604
virgin	-4605
istan	-4606
▁capacity	-4607
far	-4608
ception	-4609
▁selling	-4610
sex	-4611
▁diet	-4612
▁records	-4613
▁theme	-4614
▁practices	-4615
▁coverage	-4616
▁35	-4617
",	-4618
▁plastic	-4619
▁drink	-4620
▁dete	-4621
mike	-4622
ript	-4623
▁colour	-4624
gon	-4625
ket	-4626
lock	-4627
▁funding	-4628
▁yesterday	-4629
scre	-4630
▁tickets	-4631
▁operating	-4632
▁caused	-4633
▁syn	-4634
squ	-4635
▁memory	-4636
▁joined	-4637
▁establish	-4638
▁obvious	-4639
▁raised	-4640
sports	-4641
limited	-4642
▁allowing	-4643
▁brown	-4644
▁worry	-4645
greg	-4646
▁survey	-4647
appro	-4648
▁songs	-4649
▁favour	-4650
▁wire	-4651
ss	-4652
indust	-4653
▁updates	-4654
committee	-4655
▁limit	-4656
▁afternoon	-4657
▁organis	-4658
▁articles	-4659
ini	-4660
▁awesome	-4661
▁relationships	-4662
▁central	-4663
society	-4664
▁parking	-4665
▁cart	-4666
hotel	-4667
trump	-4668
▁core	-4669
▁techniques	-4670
die	-4671
▁assistance	-4672
33	-4673
▁showed	-4674
bridge	-4675
pu	-4676
▁walking	-4677
▁courses	-4678
▁managed	-4679
▁population	-4680
!!!	-4681
▁sea	-4682
perform	-4683
▁combination	-4684
centre	-4685
robert	-4686
▁thr	-4687
▁7.	-4688
▁decide	-4689
▁temperature	-4690
/201	-4691
uty	-4692
ivered	-4693
tem	-4694
month	-4695
▁29	-4696
:5	-4697
tru	-4698
▁du	-4699
▁estim	-4700
hensive	-4701
▁landsc	-4702
manager	-4703
▁appears	-4704
ferences	-4705
▁claims	-4706
▁previously	-4707
▁lose	-4708
photo	-4709
aper	-4710
democr	-4711
chair	-4712
▁orders	-4713
▁profile	-4714
▁deb	-4715
earth	-4716
omb	-4717
▁shel	-4718
pow	-4719
▁vehicles	-4720
▁thoughts	-4721
hr	-4722
▁parties	-4723
▁spl	-4724
▁society	-4725
share	-4726
network	-4727
pract	-4728
??	-4729
want	-4730
▁dur	-4731
▁teachers	-4732
building	-4733
pop	-4734
gb	-4735
louis	-4736
▁eating	-4737
▁inf	-4738
▁500	-4739
▁nar	-4740
▁firstname	-4741
yer	-4742
▁flu	-4743
▁notes	-4744
▁charges	-4745
congress	-4746
need	-4747
▁accident	-4748
francis	-4749
▁filled	-4750
ded	-4751
imp	-4752
▁counter	-4753
▁enjoyed	-4754
▁documents	-4755
energy	-4756
▁repe	-4757
▁smaller	-4758
bled	-4759
welcome	-4760
pie	-4761
cohol	-4762
sky	-4763
▁ended	-4764
▁swim	-4765
rict	-4766
▁generally	-4767
▁outdoor	-4768
▁launched	-4769
▁dep	-4770
bir	-4771
hou	-4772
sat	-4773
▁optim	-4774
▁kid	-4775
▁task	-4776
copyright	-4777
▁factors	-4778
those	-4779
▁putting	-4780
▁direction	-4781
non	-4782
▁legisl	-4783
▁youth	-4784
▁earth	-4785
▁teacher	-4786
▁installation	-4787
worth	-4788
24	-4789
▁becomes	-4790
cos	-4791
hope	-4792
iration	-4793
▁panel	-4794
▁fold	-4795
▁values	-4796
▁toward	-4797
▁shut	-4798
▁situ	-4799
meet	-4800
eter	-4801
▁argu	-4802
▁transl	-4803
lets	-4804
parent	-4805
▁concerns	-4806
medic	-4807
▁helpful	-4808
▁corporate	-4809
sor	-4810
joe	-4811
▁van	-4812
digital	-4813
▁pal	-4814
▁bac	-4815
▁enhance	-4816
library	-4817
▁slightly	-4818
edom	-4819
▁innovative	-4820
kings	-4821
▁citiz	-4822
▁missing	-4823
▁architect	-4824
▁chocolate	-4825
fox	-4826
▁separate	-4827
▁bon	-4828
comple	-4829
conference	-4830
▁coll	-4831
ownt	-4832
ensions	-4833
▁rap	-4834
▁environmental	-4835
wild	-4836
▁upcoming	-4837
prem	-4838
rics	-4839
aa	-4840
▁honest	-4841
▁library	-4842
bud	-4843
▁assign	-4844
▁commitment	-4845
icip	-4846
py	-4847
▁format	-4848
did	-4849
pen	-4850
prov	-4851
▁century	-4852
four	-4853
three	-4854
▁waste	-4855
▁delicious	-4856
ifying	-4857
▁mort	-4858
bac	-4859
▁relevant	-4860
▁45	-4861
▁tend	-4862
source	-4863
▁south	-4864
▁truth	-4865
bob	-4866
▁hearing	-4867
▁sch	-4868
human	-4869
▁emergency	-4870
ervation	-4871
▁fantastic	-4872
angeles	-4873
▁joint	-4874
▁fuel	-4875
▁inspired	-4876
maybe	-4877
▁expertise	-4878
▁milk	-4879
▁spect	-4880
dog	-4881
▁sounds	-4882
museum	-4883
peter	-4884
las	-4885
▁discussion	-4886
cook	-4887
available	-4888
▁willing	-4889
does	-4890
rical	-4891
▁consumers	-4892
▁asking	-4893
▁dance	-4894
france	-4895
▁vir	-4896
▁sav	-4897
▁furniture	-4898
▁sets	-4899
▁register	-4900
▁raise	-4901
ita	-4902
sar	-4903
hon	-4904
letter	-4905
▁encourage	-4906
ulture	-4907
▁extensive	-4908
stock	-4909
job	-4910
▁decisions	-4911
▁despite	-4912
▁fourth	-4913
plo	-4914
▁chat	-4915
global	-4916
▁ath	-4917
inch	-4918
▁desk	-4919
inste	-4920
▁mental	-4921
▁transform	-4922
anna	-4923
▁promote	-4924
icies	-4925
style	-4926
▁lunch	-4927
▁delivered	-4928
atabase	-4929
ola	-4930
!)	-4931
away	-4932
eless	-4933
▁movies	-4934
▁north	-4935
▁chicken	-4936
▁tast	-4937
▁agreement	-4938
▁executive	-4939
iated	-4940
ales	-4941
saf	-4942
▁absolutely	-4943
▁photograph	-4944
▁eth	-4945
▁adapt	-4946
▁plays	-4947
▁brief	-4948
▁reached	-4949
kel	-4950
anth	-4951
▁trees	-4952
ko	-4953
▁adults	-4954
▁units	-4955
turn	-4956
rose	-4957
-201	-4958
iled	-4959
▁agree	-4960
▁edge	-4961
▁seeking	-4962
xx	-4963
inal	-4964
▁struct	-4965
▁arrang	-4966
▁civil	-4967
▁vs	-4968
▁nav	-4969
olic	-4970
▁psych	-4971
▁sauce	-4972
covid	-4973
legal	-4974
▁generation	-4975
tube	-4976
travel	-4977
space	-4978
cription	-4979
cape	-4980
▁fruit	-4981
▁fees	-4982
▁recommended	-4983
▁approximately	-4984
▁rid	-4985
sem	-4986
icians	-4987
prise	-4988
tes	-4989
▁achie	-4990
ja	-4991
▁presence	-4992
asia	-4993
▁lovely	-4994
▁seconds	-4995
▁expensive	-4996
▁square	-4997
▁combined	-4998
▁centre	-4999
itable	-5000
▁topic	-5001
▁radio	-5002
▁provider	-5003
▁connected	-5004
canad	-5005
ato	-5006
▁lock	-5007
wi	-5008
def	-5009
irmed	-5010
▁info	-5011
ki	-5012
mult	-5013
44	-5014
▁calling	-5015
▁neck	-5016
shop	-5017
▁tea	-5018
▁prepare	-5019
▁distance	-5020
▁bringing	-5021
nel	-5022
cean	-5023
mur	-5024
▁alternative	-5025
▁registered	-5026
ym	-5027
isher	-5028
▁operation	-5029
lind	-5030
▁feels	-5031
▁od	-5032
▁thick	-5033
▁confidence	-5034
tun	-5035
▁mentioned	-5036
▁seek	-5037
secut	-5038
▁controll	-5039
econom	-5040
▁pu	-5041
▁32	-5042
▁cities	-5043
azz	-5044
assist	-5045
▁tight	-5046
host	-5047
jeff	-5048
▁exchange	-5049
▁server	-5050
archers	-5051
▁fellow	-5052
▁minimum	-5053
▁clim	-5054
thomas	-5055
88	-5056
clean	-5057
minister	-5058
?”	-5059
chester	-5060
▁foreign	-5061
heart	-5062
interest	-5063
▁infr	-5064
▁bowl	-5065
▁dogs	-5066
▁category	-5067
▁2007	-5068
▁nine	-5069
▁seat	-5070
secret	-5071
adow	-5072
lat	-5073
control	-5074
present	-5075
▁readers	-5076
osis	-5077
festival	-5078
bb	-5079
▁educational	-5080
▁trial	-5081
hell	-5082
▁brands	-5083
▁surgery	-5084
▁wearing	-5085
jon	-5086
▁kick	-5087
▁stars	-5088
nav	-5089
born	-5090
▁installed	-5091
▁ring	-5092
▁consid	-5093
hun	-5094
hom	-5095
▁processes	-5096
paper	-5097
▁stret	-5098
core	-5099
▁academic	-5100
▁websites	-5101
▁returned	-5102
dam	-5103
▁ven	-5104
een	-5105
▁rat	-5106
elines	-5107
▁sexual	-5108
making	-5109
table	-5110
▁appearance	-5111
▁winner	-5112
ifications	-5113
lot	-5114
▁majority	-5115
local	-5116
▁cooking	-5117
happy	-5118
cross	-5119
▁gather	-5120
▁maximum	-5121
▁responsibility	-5122
▁killed	-5123
▁measures	-5124
▁mostly	-5125
▁tun	-5126
applic	-5127
▁instru	-5128
communic	-5129
▁cloud	-5130
eline	-5131
vd	-5132
fed	-5133
mobile	-5134
execut	-5135
▁female	-5136
estyle	-5137
fy	-5138
johnson	-5139
▁anywhere	-5140
hal	-5141
atre	-5142
agement	-5143
▁approved	-5144
jose	-5145
▁married	-5146
▁battery	-5147
mony	-5148
▁196	-5149
oga	-5150
games	-5151
▁switch	-5152
▁tough	-5153
icate	-5154
germany	-5155
german	-5156
little	-5157
▁impl	-5158
▁pump	-5159
ryan	-5160
oles	-5161
▁8.	-5162
inct	-5163
▁doors	-5164
▁scheduled	-5165
▁guest	-5166
▁sympt	-5167
▁accompl	-5168
▁teen	-5169
▁rom	-5170
▁comprehensive	-5171
▁signs	-5172
▁bike	-5173
gent	-5174
priv	-5175
▁detailed	-5176
▁contem	-5177
▁31	-5178
▁supporting	-5179
▁therefore	-5180
▁feedback	-5181
▁boost	-5182
bost	-5183
▁leads	-5184
asts	-5185
drive	-5186
try	-5187
verse	-5188
▁participants	-5189
▁purchased	-5190
▁featured	-5191
▁chief	-5192
kes	-5193
▁stre	-5194
▁pros	-5195
▁essay	-5196
inations	-5197
expl	-5198
hospital	-5199
ager	-5200
cred	-5201
▁rise	-5202
martin	-5203
▁importance	-5204
▁properly	-5205
▁climate	-5206
▁kill	-5207
▁veter	-5208
ician	-5209
▁affordable	-5210
trust	-5211
mir	-5212
▁worldwide	-5213
▁windows	-5214
hs	-5215
pdf	-5216
ternal	-5217
asks	-5218
young	-5219
▁cheap	-5220
unning	-5221
idden	-5222
cir	-5223
ulty	-5224
▁meal	-5225
rings	-5226
▁animal	-5227
▁audio	-5228
kore	-5229
eed	-5230
▁chemical	-5231
ius	-5232
▁mur	-5233
rat	-5234
jac	-5235
otic	-5236
▁otherwise	-5237
ocket	-5238
▁topics	-5239
▁joy	-5240
▁pregn	-5241
ipal	-5242
daily	-5243
dc	-5244
▁flowers	-5245
▁ourselves	-5246
small	-5247
country	-5248
students	-5249
nament	-5250
ero	-5251
▁$3	-5252
iminal	-5253
▁studio	-5254
▁supported	-5255
▁nom	-5256
osition	-5257
australian	-5258
fs	-5259
▁defense	-5260
visit	-5261
african	-5262
▁clearly	-5263
▁push	-5264
kn	-5265
▁performed	-5266
ae	-5267
orders	-5268
▁apps	-5269
▁featuring	-5270
▁predict	-5271
▁sitting	-5272
▁competitive	-5273
hors	-5274
▁<	-5275
number	-5276
ulated	-5277
ho	-5278
gage	-5279
▁mouth	-5280
▁familiar	-5281
▁applied	-5282
span	-5283
boston	-5284
▁motiv	-5285
pected	-5286
▁advertising	-5287
alog	-5288
▁policies	-5289
▁birthday	-5290
▁vent	-5291
▁technologies	-5292
▁charged	-5293
break	-5294
▁behavior	-5295
anda	-5296
▁minor	-5297
▁sister	-5298
▁removed	-5299
▁participate	-5300
▁totally	-5301
▁actions	-5302
▁bond	-5303
burn	-5304
▁faster	-5305
▁sides	-5306
tle	-5307
dar	-5308
wy	-5309
usion	-5310
▁appeared	-5311
station	-5312
guard	-5313
▁editor	-5314
▁reliable	-5315
▁ang	-5316
▁holding	-5317
▁emer	-5318
lie	-5319
▁battle	-5320
▁revenue	-5321
▁begins	-5322
nas	-5323
enjoy	-5324
▁valid	-5325
▁label	-5326
americans	-5327
▁3,	-5328
23	-5329
give	-5330
erce	-5331
▁inches	-5332
▁entertainment	-5333
▁episode	-5334
▁scale	-5335
▁visiting	-5336
▁writer	-5337
▁ment	-5338
glass	-5339
▁caught	-5340
▁meat	-5341
wind	-5342
ulous	-5343
prene	-5344
▁shap	-5345
▁delight	-5346
▁quiet	-5347
natural	-5348
nc	-5349
kar	-5350
spec	-5351
▁flo	-5352
kins	-5353
victor	-5354
mother	-5355
kind	-5356
21	-5357
▁tail	-5358
▁exclusive	-5359
▁strategies	-5360
▁opinion	-5361
tered	-5362
▁officer	-5363
eper	-5364
▁der	-5365
astructure	-5366
-10	-5367
japanese	-5368
▁incorpor	-5369
▁monthly	-5370
summer	-5371
ushed	-5372
▁restaurants	-5373
▁cutting	-5374
▁teach	-5375
▁restrict	-5376
ols	-5377
jones	-5378
▁cells	-5379
▁depending	-5380
▁wit	-5381
dist	-5382
osen	-5383
▁cake	-5384
▁debut	-5385
▁dynam	-5386
▁deals	-5387
coast	-5388
▁fell	-5389
▁consumer	-5390
morrow	-5391
rid	-5392
▁appointment	-5393
select	-5394
▁hun	-5395
ulate	-5396
▁labor	-5397
▁fif	-5398
academy	-5399
range	-5400
fc	-5401
▁university	-5402
▁species	-5403
▁employee	-5404
▁breakfast	-5405
reprene	-5406
▁confirm	-5407
▁hundreds	-5408
record	-5409
▁vary	-5410
▁intended	-5411
steve	-5412
/0	-5413
▁sessions	-5414
rights	-5415
▁described	-5416
virginia	-5417
▁shoes	-5418
▁television	-5419
▁occasion	-5420
iest	-5421
▁celebrate	-5422
▁internal	-5423
ighter	-5424
italian	-5425
▁300	-5426
▁covers	-5427
▁improved	-5428
▁marriage	-5429
ura	-5430
random	-5431
▁truck	-5432
rus	-5433
cry	-5434
otton	-5435
▁reco	-5436
▁revealed	-5437
▁campus	-5438
▁edition	-5439
▁eventually	-5440
▁mir	-5441
words	-5442
sometimes	-5443
▁conversation	-5444
rate	-5445
▁introduced	-5446
▁ris	-5447
abet	-5448
rum	-5449
▁housing	-5450
wear	-5451
▁cultural	-5452
oop	-5453
-9	-5454
isa	-5455
grees	-5456
▁investigation	-5457
▁planned	-5458
▁flight	-5459
wat	-5460
▁specifically	-5461
amb	-5462
▁dining	-5463
▁unless	-5464
dro	-5465
instead	-5466
▁discovered	-5467
yl	-5468
history	-5469
▁cro	-5470
▁lights	-5471
matt	-5472
▁ign	-5473
▁election	-5474
▁aspects	-5475
rep	-5476
▁neighborhood	-5477
▁volume	-5478
▁(3	-5479
▁fly	-5480
ixture	-5481
▁compar	-5482
area	-5483
ubs	-5484
▁basket	-5485
▁accounts	-5486
26	-5487
▁bread	-5488
▁typically	-5489
200	-5490
cking	-5491
fac	-5492
▁manufacturing	-5493
▁remote	-5494
▁administration	-5495
▁bedroom	-5496
mosp	-5497
▁liqu	-5498
▁resource	-5499
▁practical	-5500
▁bathroom	-5501
guide	-5502
profit	-5503
oted	-5504
▁icon	-5505
georg	-5506
▁incredible	-5507
▁interior	-5508
▁remaining	-5509
instagram	-5510
▁guarantee	-5511
____	-5512
▁teeth	-5513
▁10.	-5514
ano	-5515
beaut	-5516
▁components	-5517
supp	-5518
stream	-5519
map	-5520
mexico	-5521
chang	-5522
▁advis	-5523
prom	-5524
mom	-5525
▁pepper	-5526
▁concent	-5527
▁warrant	-5528
yard	-5529
▁confirmed	-5530
▁cabin	-5531
williams	-5532
100	-5533
▁coast	-5534
smart	-5535
idays	-5536
iner	-5537
▁fields	-5538
carolina	-5539
arp	-5540
tax	-5541
▁blow	-5542
kim	-5543
▁negative	-5544
▁industrial	-5545
▁shooting	-5546
▁suitable	-5547
▁reput	-5548
▁clo	-5549
▁automatically	-5550
▁chain	-5551
▁engineering	-5552
friendly	-5553
abs	-5554
▁burn	-5555
mean	-5556
executive	-5557
▁oven	-5558
iamond	-5559
▁invent	-5560
▁perfectly	-5561
▁debt	-5562
▁cere	-5563
▁tomorrow	-5564
▁scored	-5565
ario	-5566
▁laws	-5567
conf	-5568
thent	-5569
▁recovery	-5570
nick	-5571
fill	-5572
bat	-5573
▁shares	-5574
proper	-5575
federal	-5576
marketing	-5577
ohio	-5578
▁drivers	-5579
▁depos	-5580
▁boys	-5581
▁corn	-5582
▁symptoms	-5583
▁evalu	-5584
canadian	-5585
nex	-5586
ez	-5587
ushing	-5588
ena	-5589
ailability	-5590
odies	-5591
▁ticket	-5592
▁sizes	-5593
itionally	-5594
ltd	-5595
still	-5596
▁golf	-5597
mos	-5598
▁noted	-5599
▁fro	-5600
▁dish	-5601
77	-5602
covery	-5603
rance	-5604
▁alcohol	-5605
paris	-5606
▁chosen	-5607
▁arrived	-5608
▁dollars	-5609
▁cop	-5610
▁boat	-5611
▁choices	-5612
:4	-5613
▁nurs	-5614
ef	-5615
▁forum	-5616
rac	-5617
28	-5618
michigan	-5619
▁buildings	-5620
▁twice	-5621
▁injuries	-5622
story	-5623
poses	-5624
▁seemed	-5625
▁island	-5626
▁	-5627
e	-5628
t	-5629
a	-5630
o	-5631
i	-5632
n	-5633
s	-5634
r	-5635
h	-5636
l	-5637
d	-5638
c	-5639
u	-5640
m	-5641
p	-5642
f	-5643
g	-5644
y	-5645
w	-5646
b	-5647
.	-5648
v	-5649
,	-5650
k	-5651
-	-5652
0	-5653
1	-5654
x	-5655
2	-5656
j	-5657
’	-5658
'	-5659
:	-5660
z	-5661
q	-5662
)	-5663
(	-5664
3	-5665
5	-5666
4	-5667
"	-5668
9	-5669
8	-5670
6	-5671
!	-5672
|	-5673
7	-5674
/	-5675
“	-5676
?	-5677
”	-5678
–	-5679
;	-5680
&	-5681
$	-5682
%	-5683
—	-5684
…	-5685
*	-5686
‘	-5687
>	-5688
[	-5689
]	-5690
_	-5691
+	-5692
@	-5693
#	-5694
•	-5695
=	-5696
£	-5697
é	-5698
®	-5699
©	-5700
<	-5701
€	-5702
~	-5703
™	-5704
·	-5705
»	-5706
°	-5707
\	-5708
`	-5709
â	-5710
″	-5711
í	-5712
á	-5713
ü	-5714
а	-5715
½	-5716
ó	-5717
о	-5718
ö	-5719
×	-5720
е	-5721
ä	-5722
Â	-5723
и	-5724
è	-5725
^	-5726
🙂	-5727
ñ	-5728
ا	-5729
н	-5730
´	-5731
т	-5732
→	-5733
ç	-5734
р	-5735
с	-5736
в	-5737
ā	-5738
«	-5739
à	-5740
★	-5741
′	-5742
¼	-5743
●	-5744
§	-5745
ل	-5746
к	-5747
л	-5748
️	-5749
п	-5750
ø	-5751
å	-5752
²	-5753
±	-5754
ú	-5755
‚	-5756
м	-5757
ã	-5758
›	-5759
م	-5760
ر	-5761
ô	-5762
у	-5763
ن	-5764
α	-5765
д	-5766
�	-5767
¢	-5768
Ã	-5769
♥	-5770
😉	-5771
 	-5772
ı	-5773
º	-5774
و	-5775
É	-5776
†	-5777
ê	-5778
„	-5779
ي	-5780
ा	-5781
ο	-5782
š	-5783
，	-5784
я	-5785
ت	-5786
ب	-5787
ë	-5788
►	-5789
−	-5790
ی	-5791
❤	-5792
س	-5793
¾	-5794
د	-5795
‐	-5796
œ	-5797
ï	-5798
č	-5799
ه	-5800
з	-5801
ō	-5802
✔	-5803
ы	-5804
г	-5805
⁄	-5806
的	-5807
ь	-5808
μ	-5809
й	-5810
्	-5811
र	-5812
क	-5813
æ	-5814
ī	-5815
：	-5816
µ	-5817
б	-5818
ć	-5819
✓	-5820
ł	-5821
¬	-5822
₹	-5823
Ö	-5824
―	-5825
े	-5826
ß	-5827
τ	-5828
ع	-5829
ş	-5830
。	-5831
і	-5832
ν	-5833
β	-5834
Ø	-5835
ι	-5836
ч	-5837
ﬁ	-5838
ε	-5839
■	-5840
י	-5841
न	-5842
‑	-5843
♦	-5844
ि	-5845
ी	-5846
Á	-5847
ف	-5848
、	-5849
स	-5850
Ü	-5851
😀	-5852
¥	-5853
ð	-5854
ū	-5855
¿	-5856
ś	-5857
î	-5858
ğ	-5859
σ	-5860
↑	-5861
त	-5862
ρ	-5863
म	-5864
ѕ	-5865
Ђ	-5866
ו	-5867
ك	-5868
ž	-5869
☆	-5870
λ	-5871
С	-5872
ă	-5873
π	-5874
】	-5875
【	-5876
ー	-5877
ˈ	-5878
